#include "magic_wand_model_data.h"

// We need to keep the data array aligned on some architectures.
#ifdef __has_attribute
#define HAVE_ATTRIBUTE(x) __has_attribute(x)
#else
#define HAVE_ATTRIBUTE(x) 0
#endif
#if HAVE_ATTRIBUTE(aligned) || (defined(__GNUC__) && !defined(__clang__))
#define DATA_ALIGN_ATTRIBUTE __attribute__((aligned(4)))
#else
#define DATA_ALIGN_ATTRIBUTE
#endif

const unsigned char g_magic_wand_model_data[] DATA_ALIGN_ATTRIBUTE = {
  // Paste the data of the char array in `src/model.cc` here
  0x1c, 0x00, 0x00, 0x00, 0x54, 0x46, 0x4c, 0x33, 0x14, 0x00, 0x20, 0x00,
  0x04, 0x00, 0x08, 0x00, 0x0c, 0x00, 0x10, 0x00, 0x14, 0x00, 0x00, 0x00,
  0x18, 0x00, 0x1c, 0x00, 0x14, 0x00, 0x00, 0x00, 0x03, 0x00, 0x00, 0x00,
  0x18, 0x00, 0x00, 0x00, 0x2c, 0x00, 0x00, 0x00, 0xd8, 0x00, 0x00, 0x00,
  0x2c, 0x00, 0x00, 0x00, 0x80, 0x00, 0x00, 0x00, 0x78, 0x00, 0x00, 0x00,
  0x05, 0x00, 0x00, 0x00, 0x28, 0x07, 0x00, 0x00, 0x44, 0x06, 0x00, 0x00,
  0xbc, 0x03, 0x00, 0x00, 0xf8, 0x02, 0x00, 0x00, 0xac, 0x01, 0x00, 0x00,
  0x01, 0x00, 0x00, 0x00, 0xd0, 0x00, 0x00, 0x00, 0x14, 0x00, 0x00, 0x00,
  0xdc, 0x32, 0x00, 0x00, 0xd8, 0x32, 0x00, 0x00, 0xd0, 0x31, 0x00, 0x00,
  0x1c, 0x31, 0x00, 0x00, 0x74, 0x30, 0x00, 0x00, 0xfc, 0x2f, 0x00, 0x00,
  0x90, 0x2f, 0x00, 0x00, 0x40, 0x13, 0x00, 0x00, 0xec, 0x11, 0x00, 0x00,
  0x10, 0x10, 0x00, 0x00, 0xb4, 0x07, 0x00, 0x00, 0xb0, 0x32, 0x00, 0x00,
  0xac, 0x32, 0x00, 0x00, 0xa8, 0x32, 0x00, 0x00, 0xa4, 0x32, 0x00, 0x00,
  0xa0, 0x32, 0x00, 0x00, 0x9c, 0x32, 0x00, 0x00, 0x98, 0x32, 0x00, 0x00,
  0x94, 0x32, 0x00, 0x00, 0x3c, 0x00, 0x00, 0x00, 0x00, 0x00, 0x00, 0x00,
  0x01, 0x00, 0x00, 0x00, 0x0c, 0x00, 0x00, 0x00, 0x08, 0x00, 0x0c, 0x00,
  0x04, 0x00, 0x08, 0x00, 0x08, 0x00, 0x00, 0x00, 0x08, 0x00, 0x00, 0x00,
  0x13, 0x00, 0x00, 0x00, 0x13, 0x00, 0x00, 0x00, 0x6d, 0x69, 0x6e, 0x5f,
  0x72, 0x75, 0x6e, 0x74, 0x69, 0x6d, 0x65, 0x5f, 0x76, 0x65, 0x72, 0x73,
  0x69, 0x6f, 0x6e, 0x00, 0xb6, 0xce, 0xff, 0xff, 0x04, 0x00, 0x00, 0x00,
  0x10, 0x00, 0x00, 0x00, 0x31, 0x2e, 0x35, 0x2e, 0x30, 0x00, 0x00, 0x00,
  0x00, 0x00, 0x00, 0x00, 0x00, 0x00, 0x00, 0x00, 0x0f, 0x00, 0x00, 0x00,
  0x4d, 0x4c, 0x49, 0x52, 0x20, 0x43, 0x6f, 0x6e, 0x76, 0x65, 0x72, 0x74,
  0x65, 0x64, 0x2e, 0x00, 0x00, 0x00, 0x0e, 0x00, 0x18, 0x00, 0x04, 0x00,
  0x08, 0x00, 0x0c, 0x00, 0x10, 0x00, 0x14, 0x00, 0x0e, 0x00, 0x00, 0x00,
  0x14, 0x00, 0x00, 0x00, 0x5c, 0x00, 0x00, 0x00, 0x60, 0x00, 0x00, 0x00,
  0x64, 0x00, 0x00, 0x00, 0x84, 0x00, 0x00, 0x00, 0x12, 0x00, 0x00, 0x00,
  0x9c, 0x31, 0x00, 0x00, 0x2c, 0x31, 0x00, 0x00, 0x88, 0x30, 0x00, 0x00,
  0xe0, 0x2f, 0x00, 0x00, 0x38, 0x2f, 0x00, 0x00, 0xd4, 0x2e, 0x00, 0x00,
  0x6c, 0x2e, 0x00, 0x00, 0x18, 0x12, 0x00, 0x00, 0xbc, 0x10, 0x00, 0x00,
  0xe0, 0x0e, 0x00, 0x00, 0x0c, 0x06, 0x00, 0x00, 0x28, 0x05, 0x00, 0x00,
  0xe8, 0x03, 0x00, 0x00, 0x3c, 0x03, 0x00, 0x00, 0x98, 0x02, 0x00, 0x00,
  0xd4, 0x01, 0x00, 0x00, 0x10, 0x01, 0x00, 0x00, 0x84, 0x00, 0x00, 0x00,
  0x01, 0x00, 0x00, 0x00, 0x00, 0x00, 0x00, 0x00, 0x01, 0x00, 0x00, 0x00,
  0x11, 0x00, 0x00, 0x00, 0x08, 0x00, 0x00, 0x00, 0x74, 0x05, 0x00, 0x00,
  0x94, 0x04, 0x00, 0x00, 0x78, 0x03, 0x00, 0x00, 0xbc, 0x02, 0x00, 0x00,
  0x30, 0x02, 0x00, 0x00, 0x50, 0x01, 0x00, 0x00, 0xa8, 0x00, 0x00, 0x00,
  0x10, 0x00, 0x00, 0x00, 0x04, 0x00, 0x00, 0x00, 0x6d, 0x61, 0x69, 0x6e,
  0x00, 0x00, 0x00, 0x00, 0x7a, 0xff, 0xff, 0xff, 0x00, 0x00, 0x00, 0x09,
  0x04, 0x00, 0x00, 0x00, 0x1c, 0x00, 0x00, 0x00, 0x10, 0x00, 0x00, 0x00,
  0x04, 0x00, 0x00, 0x00, 0xb2, 0xcf, 0xff, 0xff, 0x00, 0x00, 0x80, 0x3f,
  0x01, 0x00, 0x00, 0x00, 0x11, 0x00, 0x00, 0x00, 0x01, 0x00, 0x00, 0x00,
  0x10, 0x00, 0x00, 0x00, 0xa0, 0xfa, 0xff, 0xff, 0x19, 0x00, 0x00, 0x00,
  0x00, 0x00, 0x00, 0x19, 0x01, 0x00, 0x00, 0x00, 0x40, 0xcf, 0xff, 0xff,
  0x14, 0x00, 0x00, 0x00, 0x12, 0x00, 0x00, 0x00, 0x18, 0x00, 0x00, 0x00,
  0x30, 0x00, 0x00, 0x00, 0x20, 0x00, 0x00, 0x00, 0x02, 0x00, 0x00, 0x00,
  0x01, 0x00, 0x00, 0x00, 0x04, 0x00, 0x00, 0x00, 0x08, 0x00, 0x00, 0x00,
  0x49, 0x64, 0x65, 0x6e, 0x74, 0x69, 0x74, 0x79, 0x00, 0x00, 0x00, 0x00,
  0x02, 0x00, 0x00, 0x00, 0xff, 0xff, 0xff, 0xff, 0x04, 0x00, 0x00, 0x00,
  0x24, 0xd0, 0xff, 0xff, 0x00, 0x00, 0x0e, 0x00, 0x18, 0x00, 0x08, 0x00,
  0x0c, 0x00, 0x10, 0x00, 0x07, 0x00, 0x14, 0x00, 0x0e, 0x00, 0x00, 0x00,
  0x00, 0x00, 0x00, 0x08, 0x03, 0x00, 0x00, 0x00, 0x18, 0x00, 0x00, 0x00,
  0x0c, 0x00, 0x00, 0x00, 0x04, 0x00, 0x00, 0x00, 0x40, 0xcf, 0xff, 0xff,
  0x01, 0x00, 0x00, 0x00, 0x10, 0x00, 0x00, 0x00, 0x03, 0x00, 0x00, 0x00,
  0x0f, 0x00, 0x00, 0x00, 0x07, 0x00, 0x00, 0x00, 0x04, 0x00, 0x00, 0x00,
  0xc8, 0xcf, 0xff, 0xff, 0x14, 0x00, 0x00, 0x00, 0x11, 0x00, 0x00, 0x00,
  0x18, 0x00, 0x00, 0x00, 0x5c, 0x00, 0x00, 0x00, 0x4c, 0x00, 0x00, 0x00,
  0x02, 0x00, 0x00, 0x00, 0x01, 0x00, 0x00, 0x00, 0x04, 0x00, 0x00, 0x00,
  0x34, 0x00, 0x00, 0x00, 0x73, 0x65, 0x71, 0x75, 0x65, 0x6e, 0x74, 0x69,
  0x61, 0x6c, 0x2f, 0x64, 0x65, 0x6e, 0x73, 0x65, 0x5f, 0x31, 0x2f, 0x4d,
  0x61, 0x74, 0x4d, 0x75, 0x6c, 0x3b, 0x73, 0x65, 0x71, 0x75, 0x65, 0x6e,
  0x74, 0x69, 0x61, 0x6c, 0x2f, 0x64, 0x65, 0x6e, 0x73, 0x65, 0x5f, 0x31,
  0x2f, 0x42, 0x69, 0x61, 0x73, 0x41, 0x64, 0x64, 0x00, 0x00, 0x00, 0x00,
  0x02, 0x00, 0x00, 0x00, 0xff, 0xff, 0xff, 0xff, 0x04, 0x00, 0x00, 0x00,
  0xc8, 0xcf, 0xff, 0xff, 0xda, 0xfc, 0xff, 0xff, 0x00, 0x00, 0x00, 0x08,
  0x03, 0x00, 0x00, 0x00, 0x24, 0x00, 0x00, 0x00, 0x18, 0x00, 0x00, 0x00,
  0x0c, 0x00, 0x00, 0x00, 0x00, 0x00, 0x06, 0x00, 0x08, 0x00, 0x07, 0x00,
  0x06, 0x00, 0x00, 0x00, 0x00, 0x00, 0x00, 0x01, 0x01, 0x00, 0x00, 0x00,
  0x0f, 0x00, 0x00, 0x00, 0x03, 0x00, 0x00, 0x00, 0x0e, 0x00, 0x00, 0x00,
  0x06, 0x00, 0x00, 0x00, 0x03, 0x00, 0x00, 0x00, 0xe8, 0xfb, 0xff, 0xff,
  0x09, 0x00, 0x00, 0x00, 0x00, 0x00, 0x00, 0x09, 0x01, 0x00, 0x00, 0x00,
  0x88, 0xd0, 0xff, 0xff, 0x14, 0x00, 0x00, 0x00, 0x10, 0x00, 0x00, 0x00,
  0x18, 0x00, 0x00, 0x00, 0x6c, 0x00, 0x00, 0x00, 0x5c, 0x00, 0x00, 0x00,
  0x02, 0x00, 0x00, 0x00, 0x01, 0x00, 0x00, 0x00, 0x10, 0x00, 0x00, 0x00,
  0x46, 0x00, 0x00, 0x00, 0x73, 0x65, 0x71, 0x75, 0x65, 0x6e, 0x74, 0x69,
  0x61, 0x6c, 0x2f, 0x64, 0x65, 0x6e, 0x73, 0x65, 0x2f, 0x4d, 0x61, 0x74,
  0x4d, 0x75, 0x6c, 0x3b, 0x73, 0x65, 0x71, 0x75, 0x65, 0x6e, 0x74, 0x69,
  0x61, 0x6c, 0x2f, 0x64, 0x65, 0x6e, 0x73, 0x65, 0x2f, 0x52, 0x65, 0x6c,
  0x75, 0x3b, 0x73, 0x65, 0x71, 0x75, 0x65, 0x6e, 0x74, 0x69, 0x61, 0x6c,
  0x2f, 0x64, 0x65, 0x6e, 0x73, 0x65, 0x2f, 0x42, 0x69, 0x61, 0x73, 0x41,
  0x64, 0x64, 0x00, 0x00, 0x02, 0x00, 0x00, 0x00, 0xff, 0xff, 0xff, 0xff,
  0x10, 0x00, 0x00, 0x00, 0xa8, 0xd1, 0xff, 0xff, 0x00, 0x00, 0x0a, 0x00,
  0x10, 0x00, 0x04, 0x00, 0x08, 0x00, 0x0c, 0x00, 0x0a, 0x00, 0x00, 0x00,
  0x02, 0x00, 0x00, 0x00, 0x10, 0x00, 0x00, 0x00, 0x04, 0x00, 0x00, 0x00,
  0x01, 0x00, 0x00, 0x00, 0x0e, 0x00, 0x00, 0x00, 0x02, 0x00, 0x00, 0x00,
  0x0d, 0x00, 0x00, 0x00, 0x05, 0x00, 0x00, 0x00, 0xa8, 0xfc, 0xff, 0xff,
  0x16, 0x00, 0x00, 0x00, 0x00, 0x00, 0x00, 0x16, 0x01, 0x00, 0x00, 0x00,
  0x48, 0xd1, 0xff, 0xff, 0x14, 0x00, 0x00, 0x00, 0x0f, 0x00, 0x00, 0x00,
  0x18, 0x00, 0x00, 0x00, 0x40, 0x00, 0x00, 0x00, 0x30, 0x00, 0x00, 0x00,
  0x02, 0x00, 0x00, 0x00, 0x01, 0x00, 0x00, 0x00, 0x70, 0x00, 0x00, 0x00,
  0x1a, 0x00, 0x00, 0x00, 0x73, 0x65, 0x71, 0x75, 0x65, 0x6e, 0x74, 0x69,
  0x61, 0x6c, 0x2f, 0x66, 0x6c, 0x61, 0x74, 0x74, 0x65, 0x6e, 0x2f, 0x52,
  0x65, 0x73, 0x68, 0x61, 0x70, 0x65, 0x00, 0x00, 0x02, 0x00, 0x00, 0x00,
  0xff, 0xff, 0xff, 0xff, 0x70, 0x00, 0x00, 0x00, 0x2c, 0xd1, 0xff, 0xff,
  0x3e, 0xfe, 0xff, 0xff, 0x00, 0x00, 0x00, 0x05, 0x01, 0x00, 0x00, 0x00,
  0x38, 0x00, 0x00, 0x00, 0x2c, 0x00, 0x00, 0x00, 0x14, 0x00, 0x00, 0x00,
  0x00, 0x00, 0x0e, 0x00, 0x14, 0x00, 0x00, 0x00, 0x10, 0x00, 0x0c, 0x00,
  0x08, 0x00, 0x04, 0x00, 0x0e, 0x00, 0x00, 0x00, 0x03, 0x00, 0x00, 0x00,
  0x01, 0x00, 0x00, 0x00, 0x03, 0x00, 0x00, 0x00, 0x01, 0x00, 0x00, 0x00,
  0x01, 0x00, 0x00, 0x00, 0x0d, 0x00, 0x00, 0x00, 0x01, 0x00, 0x00, 0x00,
  0x0c, 0x00, 0x00, 0x00, 0xe8, 0xd1, 0xff, 0xff, 0x14, 0x00, 0x00, 0x00,
  0x0e, 0x00, 0x00, 0x00, 0x20, 0x00, 0x00, 0x00, 0x58, 0x00, 0x00, 0x00,
  0x40, 0x00, 0x00, 0x00, 0x04, 0x00, 0x00, 0x00, 0x01, 0x00, 0x00, 0x00,
  0x07, 0x00, 0x00, 0x00, 0x01, 0x00, 0x00, 0x00, 0x10, 0x00, 0x00, 0x00,
  0x22, 0x00, 0x00, 0x00, 0x73, 0x65, 0x71, 0x75, 0x65, 0x6e, 0x74, 0x69,
  0x61, 0x6c, 0x2f, 0x6d, 0x61, 0x78, 0x5f, 0x70, 0x6f, 0x6f, 0x6c, 0x69,
  0x6e, 0x67, 0x32, 0x64, 0x5f, 0x31, 0x2f, 0x4d, 0x61, 0x78, 0x50, 0x6f,
  0x6f, 0x6c, 0x00, 0x00, 0x04, 0x00, 0x00, 0x00, 0xff, 0xff, 0xff, 0xff,
  0x07, 0x00, 0x00, 0x00, 0x01, 0x00, 0x00, 0x00, 0x10, 0x00, 0x00, 0x00,
  0xe4, 0xd1, 0xff, 0xff, 0x1a, 0xfe, 0xff, 0xff, 0x00, 0x00, 0x00, 0x01,
  0x24, 0x00, 0x00, 0x00, 0x18, 0x00, 0x00, 0x00, 0x04, 0x00, 0x00, 0x00,
  0x0c, 0xfe, 0xff, 0xff, 0x01, 0x00, 0x00, 0x00, 0x01, 0x00, 0x00, 0x00,
  0x00, 0x00, 0x00, 0x01, 0x01, 0x00, 0x00, 0x00, 0x0c, 0x00, 0x00, 0x00,
  0x03, 0x00, 0x00, 0x00, 0x0b, 0x00, 0x00, 0x00, 0x09, 0x00, 0x00, 0x00,
  0x02, 0x00, 0x00, 0x00, 0x90, 0xd2, 0xff, 0xff, 0x14, 0x00, 0x00, 0x00,
  0x0d, 0x00, 0x00, 0x00, 0x20, 0x00, 0x00, 0x00, 0xb8, 0x00, 0x00, 0x00,
  0xa0, 0x00, 0x00, 0x00, 0x04, 0x00, 0x00, 0x00, 0x01, 0x00, 0x00, 0x00,
  0x15, 0x00, 0x00, 0x00, 0x01, 0x00, 0x00, 0x00, 0x10, 0x00, 0x00, 0x00,
  0x83, 0x00, 0x00, 0x00, 0x73, 0x65, 0x71, 0x75, 0x65, 0x6e, 0x74, 0x69,
  0x61, 0x6c, 0x2f, 0x63, 0x6f, 0x6e, 0x76, 0x32, 0x64, 0x5f, 0x31, 0x2f,
  0x52, 0x65, 0x6c, 0x75, 0x3b, 0x73, 0x65, 0x71, 0x75, 0x65, 0x6e, 0x74,
  0x69, 0x61, 0x6c, 0x2f, 0x63, 0x6f, 0x6e, 0x76, 0x32, 0x64, 0x5f, 0x31,
  0x2f, 0x42, 0x69, 0x61, 0x73, 0x41, 0x64, 0x64, 0x3b, 0x73, 0x65, 0x71,
  0x75, 0x65, 0x6e, 0x74, 0x69, 0x61, 0x6c, 0x2f, 0x63, 0x6f, 0x6e, 0x76,
  0x32, 0x64, 0x5f, 0x31, 0x2f, 0x43, 0x6f, 0x6e, 0x76, 0x32, 0x44, 0x3b,
  0x73, 0x65, 0x71, 0x75, 0x65, 0x6e, 0x74, 0x69, 0x61, 0x6c, 0x2f, 0x63,
  0x6f, 0x6e, 0x76, 0x32, 0x64, 0x5f, 0x31, 0x2f, 0x42, 0x69, 0x61, 0x73,
  0x41, 0x64, 0x64, 0x2f, 0x52, 0x65, 0x61, 0x64, 0x56, 0x61, 0x72, 0x69,
  0x61, 0x62, 0x6c, 0x65, 0x4f, 0x70, 0x2f, 0x72, 0x65, 0x73, 0x6f, 0x75,
  0x72, 0x63, 0x65, 0x00, 0x04, 0x00, 0x00, 0x00, 0xff, 0xff, 0xff, 0xff,
  0x15, 0x00, 0x00, 0x00, 0x01, 0x00, 0x00, 0x00, 0x10, 0x00, 0x00, 0x00,
  0xfc, 0xd3, 0xff, 0xff, 0x00, 0x00, 0x0e, 0x00, 0x1a, 0x00, 0x08, 0x00,
  0x0c, 0x00, 0x10, 0x00, 0x07, 0x00, 0x14, 0x00, 0x0e, 0x00, 0x00, 0x00,
  0x00, 0x00, 0x00, 0x05, 0x01, 0x00, 0x00, 0x00, 0x3c, 0x00, 0x00, 0x00,
  0x30, 0x00, 0x00, 0x00, 0x14, 0x00, 0x00, 0x00, 0x00, 0x00, 0x0e, 0x00,
  0x18, 0x00, 0x17, 0x00, 0x10, 0x00, 0x0c, 0x00, 0x08, 0x00, 0x04, 0x00,
  0x0e, 0x00, 0x00, 0x00, 0x03, 0x00, 0x00, 0x00, 0x03, 0x00, 0x00, 0x00,
  0x03, 0x00, 0x00, 0x00, 0x03, 0x00, 0x00, 0x00, 0x00, 0x00, 0x00, 0x01,
  0x01, 0x00, 0x00, 0x00, 0x0b, 0x00, 0x00, 0x00, 0x01, 0x00, 0x00, 0x00,
  0x0a, 0x00, 0x00, 0x00, 0x2c, 0xff, 0xff, 0xff, 0x11, 0x00, 0x00, 0x00,
  0x00, 0x00, 0x00, 0x11, 0x01, 0x00, 0x00, 0x00, 0xcc, 0xd3, 0xff, 0xff,
  0x14, 0x00, 0x00, 0x00, 0x0c, 0x00, 0x00, 0x00, 0x20, 0x00, 0x00, 0x00,
  0x58, 0x00, 0x00, 0x00, 0x40, 0x00, 0x00, 0x00, 0x04, 0x00, 0x00, 0x00,
  0x01, 0x00, 0x00, 0x00, 0x15, 0x00, 0x00, 0x00, 0x01, 0x00, 0x00, 0x00,
  0x08, 0x00, 0x00, 0x00, 0x20, 0x00, 0x00, 0x00, 0x73, 0x65, 0x71, 0x75,
  0x65, 0x6e, 0x74, 0x69, 0x61, 0x6c, 0x2f, 0x6d, 0x61, 0x78, 0x5f, 0x70,
  0x6f, 0x6f, 0x6c, 0x69, 0x6e, 0x67, 0x32, 0x64, 0x2f, 0x4d, 0x61, 0x78,
  0x50, 0x6f, 0x6f, 0x6c, 0x00, 0x00, 0x00, 0x00, 0x04, 0x00, 0x00, 0x00,
  0xff, 0xff, 0xff, 0xff, 0x15, 0x00, 0x00, 0x00, 0x01, 0x00, 0x00, 0x00,
  0x08, 0x00, 0x00, 0x00, 0xd8, 0xd4, 0xff, 0xff, 0x00, 0x00, 0x0e, 0x00,
  0x14, 0x00, 0x00, 0x00, 0x08, 0x00, 0x0c, 0x00, 0x07, 0x00, 0x10, 0x00,
  0x0e, 0x00, 0x00, 0x00, 0x00, 0x00, 0x00, 0x01, 0x30, 0x00, 0x00, 0x00,
  0x24, 0x00, 0x00, 0x00, 0x10, 0x00, 0x00, 0x00, 0x0c, 0x00, 0x10, 0x00,
  0x00, 0x00, 0x04, 0x00, 0x08, 0x00, 0x0f, 0x00, 0x0c, 0x00, 0x00, 0x00,
  0x01, 0x00, 0x00, 0x00, 0x01, 0x00, 0x00, 0x00, 0x00, 0x00, 0x00, 0x01,
  0x01, 0x00, 0x00, 0x00, 0x0a, 0x00, 0x00, 0x00, 0x03, 0x00, 0x00, 0x00,
  0x00, 0x00, 0x00, 0x00, 0x08, 0x00, 0x00, 0x00, 0x01, 0x00, 0x00, 0x00,
  0x0c, 0x00, 0x10, 0x00, 0x0b, 0x00, 0x00, 0x00, 0x0c, 0x00, 0x04, 0x00,
  0x0c, 0x00, 0x00, 0x00, 0x03, 0x00, 0x00, 0x00, 0x00, 0x00, 0x00, 0x03,
  0x01, 0x00, 0x00, 0x00, 0xac, 0xd4, 0xff, 0xff, 0x14, 0x00, 0x00, 0x00,
  0x0b, 0x00, 0x00, 0x00, 0x20, 0x00, 0x00, 0x00, 0xb0, 0x00, 0x00, 0x00,
  0x98, 0x00, 0x00, 0x00, 0x04, 0x00, 0x00, 0x00, 0x01, 0x00, 0x00, 0x00,
  0x40, 0x00, 0x00, 0x00, 0x03, 0x00, 0x00, 0x00, 0x08, 0x00, 0x00, 0x00,
  0x7b, 0x00, 0x00, 0x00, 0x73, 0x65, 0x71, 0x75, 0x65, 0x6e, 0x74, 0x69,
  0x61, 0x6c, 0x2f, 0x63, 0x6f, 0x6e, 0x76, 0x32, 0x64, 0x2f, 0x52, 0x65,
  0x6c, 0x75, 0x3b, 0x73, 0x65, 0x71, 0x75, 0x65, 0x6e, 0x74, 0x69, 0x61,
  0x6c, 0x2f, 0x63, 0x6f, 0x6e, 0x76, 0x32, 0x64, 0x2f, 0x42, 0x69, 0x61,
  0x73, 0x41, 0x64, 0x64, 0x3b, 0x73, 0x65, 0x71, 0x75, 0x65, 0x6e, 0x74,
  0x69, 0x61, 0x6c, 0x2f, 0x63, 0x6f, 0x6e, 0x76, 0x32, 0x64, 0x2f, 0x43,
  0x6f, 0x6e, 0x76, 0x32, 0x44, 0x3b, 0x73, 0x65, 0x71, 0x75, 0x65, 0x6e,
  0x74, 0x69, 0x61, 0x6c, 0x2f, 0x63, 0x6f, 0x6e, 0x76, 0x32, 0x64, 0x2f,
  0x42, 0x69, 0x61, 0x73, 0x41, 0x64, 0x64, 0x2f, 0x52, 0x65, 0x61, 0x64,
  0x56, 0x61, 0x72, 0x69, 0x61, 0x62, 0x6c, 0x65, 0x4f, 0x70, 0x2f, 0x72,
  0x65, 0x73, 0x6f, 0x75, 0x72, 0x63, 0x65, 0x00, 0x04, 0x00, 0x00, 0x00,
  0xff, 0xff, 0xff, 0xff, 0x40, 0x00, 0x00, 0x00, 0x03, 0x00, 0x00, 0x00,
  0x08, 0x00, 0x00, 0x00, 0x00, 0xd5, 0xff, 0xff, 0x0a, 0xd6, 0xff, 0xff,
  0x04, 0x00, 0x00, 0x00, 0x00, 0x08, 0x00, 0x00, 0x3c, 0x07, 0xc5, 0x3e,
  0x4c, 0x80, 0x70, 0x3d, 0xa7, 0xac, 0x5e, 0x3b, 0x5f, 0xe3, 0xf2, 0x3e,
  0x91, 0x86, 0x9f, 0x3d, 0x43, 0x18, 0xea, 0x3e, 0x92, 0xd9, 0x79, 0xbe,
  0x85, 0x9a, 0xa8, 0x3e, 0x91, 0x47, 0x66, 0xbc, 0x1e, 0xa5, 0x92, 0x3b,
  0x36, 0x83, 0x3b, 0x3e, 0xe4, 0x2a, 0x09, 0xbe, 0x9e, 0x13, 0xff, 0xbc,
  0x6f, 0x99, 0x26, 0xbe, 0x14, 0x66, 0xf7, 0xbe, 0x18, 0xdb, 0x56, 0x3e,
  0xc5, 0xd3, 0xc7, 0xbd, 0x2b, 0xd8, 0x51, 0x3d, 0xc9, 0x29, 0x61, 0x3d,
  0xec, 0x8f, 0x89, 0xbe, 0xfc, 0x35, 0xa5, 0xbd, 0xed, 0xff, 0x98, 0xbe,
  0x1f, 0x77, 0x9b, 0xbe, 0x0d, 0xad, 0x05, 0xbe, 0x67, 0x79, 0x91, 0xbe,
  0x1d, 0x7f, 0x3d, 0x3d, 0x5e, 0xfb, 0x19, 0x3d, 0x91, 0xb1, 0xcc, 0xbe,
  0x81, 0xb8, 0x36, 0xbe, 0x3c, 0xf5, 0xe8, 0xbe, 0x43, 0xbb, 0x41, 0xbd,
  0xa6, 0xf6, 0x81, 0xbe, 0x93, 0x22, 0xfb, 0x3d, 0x33, 0x7b, 0x58, 0xbe,
  0x11, 0xf9, 0x25, 0xbe, 0xb2, 0xc1, 0xb9, 0xbe, 0x03, 0x36, 0x85, 0x3e,
  0xa0, 0xe4, 0x8e, 0xbc, 0x49, 0x01, 0x14, 0xbe, 0x06, 0x3f, 0xe8, 0xbd,
  0x70, 0x93, 0x30, 0x3d, 0xf7, 0x33, 0x1e, 0xbe, 0x7c, 0x06, 0x68, 0x3d,
  0xe9, 0xb9, 0x84, 0xbe, 0x6f, 0x19, 0x6f, 0xbe, 0x68, 0xdd, 0x80, 0xbd,
  0x67, 0x0d, 0x4c, 0xbe, 0xa2, 0x1b, 0x0b, 0xbc, 0x1a, 0x67, 0x38, 0xbe,
  0x1e, 0x25, 0xe1, 0xbd, 0x63, 0xd6, 0x24, 0x3d, 0x78, 0x2c, 0x8f, 0xbb,
  0x58, 0x48, 0x79, 0x3e, 0xbc, 0xe7, 0xe3, 0x3c, 0x96, 0x6e, 0x83, 0xbe,
  0x18, 0x05, 0x00, 0x3e, 0x12, 0x57, 0x15, 0xbe, 0x7e, 0x39, 0x7c, 0xbe,
  0x75, 0xeb, 0x00, 0x3d, 0x45, 0x95, 0x38, 0xbe, 0x3a, 0x5b, 0x2d, 0xbe,
  0x17, 0x36, 0x12, 0xbe, 0xdc, 0xfc, 0x85, 0xbe, 0x54, 0x68, 0x2f, 0xbe,
  0xbe, 0xec, 0xe0, 0xbe, 0x82, 0xc7, 0x35, 0x3e, 0x67, 0x50, 0xff, 0x3d,
  0xdf, 0x1a, 0x69, 0xbe, 0xd2, 0xed, 0xa5, 0x3d, 0x27, 0x3d, 0x32, 0xbe,
  0x22, 0x2b, 0xa1, 0x3e, 0x0f, 0x2e, 0x6c, 0xbd, 0x61, 0x3b, 0x05, 0xbf,
  0xe3, 0x6e, 0x02, 0x3e, 0x9d, 0x8f, 0x03, 0x3e, 0x1f, 0x05, 0x86, 0xbe,
  0xd8, 0xe8, 0xc2, 0xbd, 0x9a, 0x89, 0xb8, 0x3d, 0x32, 0x12, 0xda, 0xbd,
  0x04, 0x39, 0x4a, 0xbe, 0x7d, 0xf2, 0xe1, 0xbe, 0x0b, 0xc8, 0x95, 0x3e,
  0xd0, 0xc4, 0xe7, 0x3d, 0x48, 0x74, 0x84, 0xbe, 0x6f, 0x07, 0xe6, 0xbd,
  0x99, 0xab, 0x50, 0xbd, 0x13, 0x1f, 0x99, 0x3e, 0xb3, 0xc4, 0x7f, 0xbe,
  0x83, 0x74, 0xe5, 0xbe, 0x6e, 0x78, 0x12, 0x3e, 0x82, 0x8c, 0xa7, 0x3d,
  0x60, 0x76, 0x60, 0xbe, 0x0b, 0x30, 0x05, 0xbe, 0x79, 0xc2, 0x38, 0xbe,
  0xaa, 0xf5, 0x95, 0xbd, 0x1f, 0x21, 0x3f, 0xbe, 0x92, 0xa7, 0xdf, 0xbd,
  0xfc, 0x31, 0x26, 0x3e, 0xaa, 0x0a, 0x27, 0x3e, 0x69, 0x45, 0xf5, 0x3c,
  0x6a, 0x7b, 0xce, 0x3e, 0x93, 0x0c, 0x7d, 0xbc, 0x17, 0xfc, 0x8b, 0x3e,
  0xe8, 0x94, 0x09, 0xbe, 0xb7, 0xa7, 0x06, 0xbe, 0xa3, 0x27, 0x99, 0xbd,
  0xa3, 0x78, 0x97, 0xbd, 0x42, 0x6a, 0xcc, 0xbd, 0x32, 0xaf, 0xce, 0x3e,
  0x24, 0x14, 0x08, 0x3d, 0x84, 0x50, 0x02, 0x3d, 0x36, 0x2d, 0xd2, 0xbd,
  0x38, 0x19, 0x79, 0xbe, 0x81, 0x57, 0xcf, 0x3c, 0x60, 0x27, 0x7c, 0xbe,
  0x01, 0x09, 0xd7, 0x3d, 0x69, 0x49, 0xa1, 0x3c, 0xbc, 0x2a, 0x07, 0x3d,
  0x98, 0x83, 0x63, 0x3c, 0xea, 0xb6, 0x56, 0xbe, 0x3c, 0xf5, 0x44, 0xbe,
  0x06, 0xfc, 0x90, 0x3e, 0x10, 0x79, 0x55, 0xbe, 0x50, 0xd9, 0x02, 0x3e,
  0xa9, 0xb2, 0x9b, 0xbd, 0x22, 0x01, 0x92, 0x3c, 0xf5, 0x58, 0x5c, 0xbe,
  0xd7, 0xc5, 0xf7, 0xbd, 0xf4, 0x78, 0x93, 0xbe, 0xb4, 0x41, 0x48, 0xbc,
  0xff, 0x65, 0xb4, 0x3e, 0x48, 0x44, 0xcb, 0xbe, 0xe6, 0x17, 0xc0, 0xbe,
  0x5a, 0x5c, 0xc9, 0xbe, 0xb4, 0x03, 0x20, 0xbf, 0x10, 0xda, 0x81, 0xbe,
  0x4a, 0x32, 0x69, 0x3e, 0xd2, 0xc8, 0xea, 0x3c, 0x58, 0xc3, 0xf3, 0xbc,
  0x6a, 0x60, 0x03, 0x3e, 0x73, 0xc3, 0xe1, 0x3c, 0xea, 0xc3, 0xc0, 0x3a,
  0x05, 0x0b, 0x7c, 0xbd, 0xdb, 0xcc, 0x1d, 0xbd, 0x0e, 0xd4, 0xb7, 0x3d,
  0x31, 0x42, 0xba, 0x3c, 0x8a, 0xfc, 0xc3, 0xbe, 0x0f, 0xd9, 0xb4, 0x3d,
  0x34, 0x87, 0x52, 0x3d, 0x6c, 0xcf, 0x9a, 0xbc, 0x79, 0x86, 0xe7, 0xbc,
  0xff, 0x2b, 0x04, 0x3e, 0x89, 0xda, 0xaf, 0x3d, 0x9a, 0x90, 0xfe, 0x3b,
  0xcd, 0x87, 0x85, 0xbe, 0x5e, 0xbf, 0x07, 0x3e, 0xa2, 0xf7, 0xc9, 0x3d,
  0x07, 0x9c, 0xaa, 0xbc, 0x6f, 0xc6, 0xf9, 0xbd, 0x33, 0x8f, 0x8d, 0x3e,
  0x2d, 0x06, 0x72, 0xbd, 0xc5, 0xba, 0x2c, 0xbe, 0xff, 0x2f, 0xa6, 0xbe,
  0x6a, 0xe4, 0xef, 0xbd, 0xb8, 0xec, 0x9a, 0xbe, 0x16, 0x83, 0x7b, 0xbc,
  0xd1, 0xfd, 0x1c, 0xbf, 0x6b, 0xc6, 0xa2, 0xbd, 0x1f, 0x04, 0x99, 0x3d,
  0xe5, 0xb7, 0xcb, 0x3d, 0x56, 0x15, 0xb2, 0xbd, 0x14, 0x44, 0xd5, 0x3d,
  0x3d, 0xd2, 0x72, 0x3e, 0x85, 0x85, 0x3c, 0x3d, 0x9d, 0x01, 0xae, 0xbe,
  0x5a, 0x6d, 0xfa, 0x3d, 0xb4, 0xdd, 0xf7, 0xbd, 0xc4, 0xb5, 0x2e, 0xbc,
  0xcc, 0x46, 0xcd, 0xbe, 0xcb, 0x5e, 0xb0, 0xbe, 0x1a, 0x7a, 0x32, 0xbc,
  0xf6, 0x44, 0xb8, 0xbe, 0x91, 0xb7, 0x2b, 0x3e, 0x56, 0x32, 0x13, 0xbe,
  0xb3, 0x0e, 0x83, 0xbd, 0xfa, 0x93, 0x51, 0xbc, 0x6c, 0x14, 0x3d, 0xbe,
  0xbb, 0xae, 0xb4, 0xbe, 0xff, 0x7f, 0x20, 0x3e, 0x04, 0xa2, 0xd0, 0xbe,
  0x0c, 0xbb, 0xea, 0x3c, 0xf1, 0xc4, 0x7c, 0x3d, 0x88, 0x68, 0x67, 0xbe,
  0xf1, 0x78, 0xac, 0xbd, 0x15, 0x93, 0xc2, 0x3e, 0x6f, 0x29, 0xcd, 0xbe,
  0xa9, 0x2b, 0xa2, 0xbd, 0xe6, 0xf0, 0x2e, 0xbf, 0x5f, 0x15, 0xaf, 0xbe,
  0xa7, 0x14, 0x5c, 0xbe, 0xff, 0xe2, 0xaa, 0x3d, 0x5c, 0x12, 0xe4, 0x3e,
  0xc0, 0x41, 0x59, 0x3d, 0x83, 0x2b, 0xa4, 0xbe, 0x38, 0xfc, 0x15, 0xbe,
  0x40, 0x25, 0xcd, 0xbe, 0xb6, 0x0f, 0xe6, 0xbd, 0x2f, 0x11, 0x31, 0x3d,
  0xae, 0xfc, 0x70, 0xbb, 0x24, 0xb6, 0xa4, 0x3b, 0x80, 0x0c, 0xc6, 0x3c,
  0x17, 0x36, 0x1c, 0xbe, 0xd2, 0x0a, 0x93, 0x3e, 0x76, 0x9f, 0x6b, 0xbd,
  0xb5, 0x00, 0x08, 0x3d, 0xe2, 0x8f, 0xdb, 0x3d, 0x3e, 0x31, 0x49, 0x3d,
  0x7c, 0x21, 0xcc, 0xbd, 0x40, 0xc8, 0xeb, 0x3c, 0x71, 0x1d, 0xf1, 0xbd,
  0xb6, 0xbf, 0x00, 0xbd, 0xff, 0x33, 0x6b, 0xbd, 0xd5, 0x4c, 0x3e, 0xbc,
  0x97, 0x74, 0xce, 0x3c, 0x6f, 0x5c, 0x0b, 0xbd, 0x82, 0x90, 0x86, 0xbe,
  0x2d, 0x0c, 0xf4, 0xbe, 0xe9, 0xa6, 0x5d, 0xbd, 0x34, 0x35, 0x46, 0x3d,
  0xdf, 0x04, 0x6a, 0xbe, 0x92, 0xf6, 0x01, 0xbe, 0x0b, 0x5f, 0x00, 0x3e,
  0x3d, 0x05, 0xb7, 0x3e, 0xb2, 0xec, 0xbf, 0x3c, 0x62, 0xc7, 0xd5, 0xbd,
  0xb3, 0x73, 0x18, 0x3e, 0x35, 0xd3, 0xa2, 0x3e, 0xbb, 0xeb, 0xf6, 0x3c,
  0x4c, 0x99, 0xa7, 0xbc, 0x82, 0xad, 0x19, 0xbb, 0xa7, 0x75, 0x57, 0xbd,
  0x0a, 0x4c, 0x7b, 0xbe, 0x2d, 0xb8, 0xe1, 0xbe, 0x7b, 0x69, 0x3a, 0xbd,
  0xd6, 0x4e, 0x9b, 0x3d, 0xab, 0x57, 0x1d, 0x3e, 0x71, 0x99, 0x43, 0xbd,
  0xa1, 0xc8, 0x1e, 0x3c, 0xdc, 0xe1, 0x35, 0x3d, 0x31, 0xfe, 0x21, 0xbe,
  0xac, 0xa6, 0x76, 0xbe, 0xb8, 0x65, 0x1e, 0xbd, 0x70, 0x40, 0x8d, 0x3d,
  0xcd, 0x38, 0x07, 0x3d, 0x1c, 0x7b, 0xb0, 0xbc, 0x2e, 0xd8, 0xad, 0xbd,
  0xe4, 0x79, 0x93, 0x3d, 0x83, 0x87, 0x96, 0x3b, 0xcf, 0x33, 0xd4, 0xbe,
  0x47, 0xa6, 0xd3, 0xbd, 0xfb, 0x83, 0x6e, 0xbd, 0x2d, 0xcb, 0x82, 0x3c,
  0x32, 0xa6, 0xde, 0xba, 0xb5, 0x17, 0x9c, 0x3c, 0x7a, 0x46, 0x16, 0x3d,
  0x17, 0x06, 0xae, 0x3d, 0x68, 0x52, 0x9c, 0xbe, 0xcb, 0x7e, 0x5b, 0xbb,
  0xf6, 0x53, 0x01, 0xbd, 0xf1, 0x36, 0x81, 0x3c, 0x22, 0x63, 0x22, 0xbc,
  0x32, 0xb5, 0x93, 0x3e, 0x67, 0x9b, 0xdf, 0x3d, 0xfc, 0x29, 0x6b, 0x3d,
  0x21, 0xa8, 0xd0, 0xbe, 0x46, 0x2c, 0x24, 0x3c, 0xe3, 0x3a, 0xc8, 0x3c,
  0x81, 0x1d, 0x71, 0x3d, 0xf0, 0xb7, 0x7a, 0x3c, 0x56, 0x55, 0x61, 0x3d,
  0x00, 0x98, 0x6e, 0x3d, 0xd5, 0xef, 0xdc, 0x3d, 0x82, 0x83, 0x87, 0xbe,
  0xbf, 0x8c, 0x24, 0x3d, 0xdd, 0x9f, 0x11, 0x3e, 0x2e, 0x9b, 0x13, 0xbc,
  0xb1, 0x78, 0x62, 0x3d, 0xe7, 0xdb, 0x82, 0xbd, 0xf5, 0xbb, 0xe1, 0xbd,
  0xfd, 0x3e, 0x30, 0xbe, 0x8b, 0xd3, 0xec, 0xbc, 0x28, 0x34, 0x11, 0xbd,
  0xd0, 0x2e, 0x12, 0xbe, 0x50, 0x1b, 0x92, 0xbd, 0x46, 0x28, 0x44, 0xbd,
  0x4c, 0x85, 0x51, 0xbe, 0x2a, 0x29, 0xb8, 0xbd, 0x72, 0xe9, 0x99, 0xbe,
  0x0f, 0xe1, 0xee, 0xbd, 0x3a, 0x0b, 0xaf, 0xbd, 0xe0, 0x8f, 0x2e, 0xbd,
  0x49, 0x23, 0xd1, 0xbd, 0xa3, 0xdf, 0x9e, 0xbd, 0x67, 0x7f, 0x41, 0xbe,
  0x30, 0x35, 0xef, 0xbc, 0x12, 0xa6, 0x62, 0xbe, 0x59, 0xf0, 0x05, 0x3f,
  0xde, 0xd3, 0x9d, 0xbd, 0xdb, 0x1a, 0x0e, 0xbd, 0xd0, 0x70, 0x84, 0xbd,
  0x07, 0x8f, 0xff, 0x3c, 0x8d, 0x8f, 0x5d, 0x3c, 0xff, 0x14, 0x4f, 0x3e,
  0xd8, 0xe7, 0x6f, 0xbd, 0xa9, 0x74, 0xce, 0x3d, 0x47, 0xa4, 0x2d, 0x3e,
  0x8a, 0x80, 0x87, 0x3c, 0x64, 0x9f, 0x4f, 0x3e, 0x39, 0xfa, 0x0a, 0x3d,
  0xa5, 0xf3, 0x2c, 0x3e, 0x47, 0x12, 0x07, 0x3f, 0x91, 0x38, 0xd3, 0x3e,
  0x4f, 0xcc, 0xa2, 0x3d, 0xbc, 0x50, 0xb5, 0x3d, 0x01, 0x6e, 0xb1, 0x3d,
  0x2a, 0x21, 0x6d, 0xbc, 0x40, 0x4f, 0x75, 0xbe, 0x97, 0x2c, 0x05, 0x3f,
  0x9b, 0x36, 0x3c, 0xbe, 0xda, 0xf3, 0x0a, 0xbd, 0xc0, 0xcb, 0x8a, 0x3d,
  0x88, 0x78, 0xad, 0xbe, 0x40, 0x70, 0xba, 0xbd, 0xe6, 0x37, 0xb9, 0xbe,
  0x94, 0xef, 0x09, 0xbf, 0xd3, 0xc1, 0x52, 0xbe, 0x24, 0xec, 0x3d, 0xbe,
  0x1a, 0xcb, 0xae, 0xbd, 0x26, 0x98, 0xbe, 0xbb, 0x6f, 0xb0, 0x05, 0xbe,
  0x4e, 0xbd, 0xa2, 0xbe, 0x89, 0xbe, 0xbe, 0xbd, 0xd9, 0x73, 0xd2, 0xbd,
  0x99, 0xfb, 0x1c, 0xbe, 0x98, 0x02, 0x8a, 0xbe, 0x68, 0x99, 0xac, 0xbe,
  0x66, 0x16, 0x56, 0x3d, 0xfc, 0xc1, 0x1e, 0xbd, 0x25, 0xa6, 0xe3, 0xbe,
  0xbe, 0x04, 0x84, 0x3d, 0xb4, 0x31, 0x70, 0x3e, 0x7e, 0x79, 0x0e, 0xbf,
  0x12, 0x15, 0x9b, 0xbc, 0x69, 0x8f, 0xf0, 0xbd, 0x95, 0x48, 0x37, 0x3f,
  0xb8, 0x31, 0x06, 0xbb, 0x08, 0x7b, 0x2f, 0xbd, 0x23, 0xd7, 0x0f, 0x3d,
  0x96, 0x3b, 0x95, 0xbd, 0x42, 0xb7, 0xa4, 0x3e, 0xab, 0x3b, 0x0a, 0x3d,
  0x46, 0x5e, 0x69, 0xbd, 0x55, 0xc1, 0x56, 0x3e, 0xa4, 0x9a, 0xab, 0xbc,
  0xa6, 0x45, 0x24, 0xbd, 0x8c, 0x91, 0x0d, 0xbd, 0xbb, 0x4c, 0xde, 0xbd,
  0x40, 0x45, 0xb8, 0x3b, 0x88, 0xae, 0x9f, 0xbc, 0xe1, 0x0a, 0x87, 0xbe,
  0x8e, 0xfd, 0xf2, 0xbe, 0xcc, 0x0c, 0x17, 0xbe, 0xdd, 0xc7, 0xe2, 0xbd,
  0xa7, 0x8b, 0x0a, 0xbe, 0xb0, 0x85, 0x0d, 0xbf, 0xf3, 0xb5, 0xa2, 0xbd,
  0xf5, 0x98, 0x44, 0xbd, 0xb3, 0x08, 0x1c, 0xbe, 0x6e, 0x03, 0xa1, 0xbe,
  0x64, 0xf4, 0xb7, 0xbd, 0xcb, 0x32, 0x3b, 0xbe, 0x34, 0x5e, 0xe2, 0xbd,
  0xbf, 0x86, 0x08, 0xbf, 0x0b, 0xef, 0x98, 0xbd, 0x14, 0x06, 0x88, 0x3c,
  0xb6, 0x0d, 0x59, 0x3e, 0xb3, 0x56, 0xc2, 0xbd, 0x95, 0x8a, 0x6d, 0xbe,
  0x52, 0x83, 0xb9, 0x3e, 0x75, 0xc3, 0x21, 0xbe, 0x75, 0x07, 0x3d, 0x3c,
  0xe6, 0x2c, 0x05, 0x3e, 0x7a, 0x12, 0x70, 0x3c, 0x3c, 0xc1, 0x83, 0x3e,
  0xaf, 0xd1, 0xce, 0x3d, 0x60, 0x19, 0x2c, 0xbe, 0x38, 0x23, 0xe1, 0xbc,
  0x76, 0x0e, 0x39, 0xbe, 0xc8, 0x48, 0x3b, 0xbe, 0xc1, 0x74, 0x36, 0x3d,
  0xe2, 0xf5, 0x83, 0x3d, 0x64, 0x70, 0x81, 0xbe, 0x02, 0x0f, 0x20, 0x3d,
  0x4e, 0x64, 0xdd, 0xbd, 0x06, 0x78, 0x67, 0xbc, 0x66, 0xd2, 0xeb, 0xbd,
  0x31, 0xbe, 0xa9, 0x3e, 0x5d, 0x17, 0x9b, 0x3d, 0x64, 0xe0, 0xac, 0x3d,
  0x89, 0x5c, 0x5c, 0xbe, 0x82, 0x26, 0x2b, 0x3e, 0x03, 0xac, 0x04, 0xbe,
  0x9b, 0xb6, 0xdf, 0x3d, 0xea, 0x09, 0xe8, 0xbd, 0x95, 0xef, 0x22, 0x3e,
  0x4b, 0x07, 0x19, 0x3e, 0xc2, 0xe9, 0x9d, 0xbd, 0xcb, 0x67, 0xe0, 0xbe,
  0xfe, 0xd6, 0x05, 0xbe, 0xb8, 0x0f, 0x2a, 0x3e, 0x5a, 0x5d, 0x29, 0xbe,
  0xfc, 0x10, 0x3e, 0x3d, 0xcc, 0x03, 0x58, 0x3d, 0xd6, 0xfc, 0x62, 0xbd,
  0x32, 0x39, 0x50, 0xbe, 0xcd, 0x50, 0xa6, 0xbe, 0x05, 0xc9, 0x64, 0xbd,
  0x13, 0xc3, 0x3c, 0xbd, 0x47, 0xef, 0xe7, 0xbd, 0x04, 0x9e, 0x10, 0xbe,
  0x40, 0x07, 0x6a, 0xbd, 0x8a, 0xbf, 0x01, 0xbe, 0xeb, 0x5d, 0xa3, 0xbd,
  0x08, 0x63, 0x08, 0xbe, 0x87, 0xef, 0x95, 0x3e, 0x3a, 0xbe, 0x82, 0xbe,
  0x3c, 0x86, 0x01, 0xbe, 0x9a, 0x20, 0xa3, 0xbe, 0xb9, 0x7a, 0x05, 0xbd,
  0xe9, 0x28, 0x0c, 0x3d, 0xbf, 0xf0, 0x82, 0x3d, 0xe4, 0x54, 0x6a, 0x3e,
  0x7b, 0x22, 0x28, 0x3f, 0xaf, 0x5b, 0x9b, 0xbe, 0x5b, 0x42, 0xd0, 0x3e,
  0xb2, 0xbd, 0xc1, 0xbe, 0x98, 0xef, 0xf6, 0x3d, 0x89, 0xce, 0x99, 0x3d,
  0xf1, 0xec, 0x2f, 0xbe, 0x5a, 0x1c, 0x76, 0xbe, 0x37, 0xda, 0x3f, 0x3e,
  0x16, 0x17, 0xb8, 0xbd, 0x5e, 0xb8, 0x49, 0xbe, 0x70, 0x1d, 0x37, 0xbe,
  0x63, 0x82, 0x75, 0xbe, 0x8f, 0xf9, 0x43, 0xbe, 0x68, 0xb6, 0xb5, 0xbc,
  0x56, 0x5c, 0xd8, 0x3c, 0x3d, 0x38, 0x01, 0x3e, 0xc8, 0xca, 0xe0, 0xbb,
  0x19, 0xb9, 0x71, 0xbe, 0x9b, 0xa9, 0x15, 0x3e, 0x4e, 0x9b, 0x73, 0xbe,
  0x3d, 0x3d, 0x01, 0x3f, 0x9e, 0x2c, 0x38, 0x3e, 0x66, 0xd0, 0xe9, 0x3d,
  0xdc, 0xab, 0x9a, 0xbd, 0x2f, 0x4c, 0x53, 0x3e, 0x76, 0xc1, 0x0a, 0xbe,
  0xb3, 0x0d, 0x68, 0x3e, 0xe1, 0x44, 0x61, 0xbe, 0xa4, 0xa9, 0x47, 0xbe,
  0xb0, 0x1d, 0xb7, 0x3d, 0xa7, 0x14, 0xad, 0xbd, 0xc0, 0x17, 0xa3, 0xbc,
  0x90, 0xed, 0x57, 0x3d, 0xe7, 0xea, 0xaa, 0xbd, 0xf4, 0xbb, 0x86, 0x3d,
  0x01, 0xad, 0xe6, 0xbd, 0x92, 0x94, 0xb7, 0xbd, 0xe1, 0x3a, 0x59, 0x3c,
  0x6a, 0x25, 0x4b, 0xbe, 0x85, 0xf6, 0x38, 0x3e, 0x00, 0x99, 0x92, 0xbb,
  0x7b, 0x84, 0x19, 0xbe, 0x3e, 0x3e, 0x07, 0x3c, 0xd7, 0x8e, 0x96, 0xbe,
  0x04, 0x3c, 0xfa, 0x3d, 0x43, 0xb1, 0x81, 0x3e, 0xe1, 0x7c, 0xf8, 0xbd,
  0xf9, 0x1b, 0xee, 0x3d, 0xd3, 0xec, 0x7f, 0x3e, 0xe8, 0x7d, 0xdb, 0xbd,
  0xea, 0x4c, 0x90, 0x3e, 0x39, 0x7a, 0xaf, 0xbe, 0x07, 0x42, 0x8b, 0xbe,
  0x69, 0x25, 0x89, 0xbd, 0x3b, 0x17, 0xb3, 0xbc, 0x50, 0x4e, 0x9f, 0x3d,
  0xbd, 0xf3, 0x63, 0xbd, 0x12, 0xd2, 0x1b, 0xbd, 0x56, 0xe3, 0x85, 0xbd,
  0xd6, 0x62, 0xde, 0xbe, 0x03, 0x2c, 0x7f, 0x3e, 0xd7, 0x09, 0x16, 0xbe,
  0xec, 0x29, 0x15, 0x3e, 0x69, 0x2a, 0xea, 0x3c, 0xbe, 0x43, 0x53, 0xbe,
  0x9e, 0x61, 0x81, 0x3d, 0x94, 0xa0, 0x8a, 0xbe, 0x98, 0x3e, 0x34, 0xbf,
  0xd5, 0xf6, 0x9d, 0x3c, 0xe2, 0xdd, 0xff, 0xff, 0x10, 0x00, 0x00, 0x00,
  0x0a, 0x00, 0x00, 0x00, 0x1c, 0x00, 0x00, 0x00, 0x38, 0x00, 0x00, 0x00,
  0x04, 0x00, 0x00, 0x00, 0x10, 0x00, 0x00, 0x00, 0x04, 0x00, 0x00, 0x00,
  0x01, 0x00, 0x00, 0x00, 0x08, 0x00, 0x00, 0x00, 0x1a, 0x00, 0x00, 0x00,
  0x73, 0x65, 0x71, 0x75, 0x65, 0x6e, 0x74, 0x69, 0x61, 0x6c, 0x2f, 0x63,
  0x6f, 0x6e, 0x76, 0x32, 0x64, 0x5f, 0x31, 0x2f, 0x43, 0x6f, 0x6e, 0x76,
  0x32, 0x44, 0x00, 0x00, 0x58, 0xdd, 0xff, 0xff, 0x62, 0xde, 0xff, 0xff,
  0x04, 0x00, 0x00, 0x00, 0x80, 0x01, 0x00, 0x00, 0xa1, 0xeb, 0x5b, 0xbd,
  0x87, 0xb0, 0x05, 0xbd, 0x6f, 0x66, 0xdd, 0x3d, 0x2b, 0x71, 0x2c, 0xbd,
  0x74, 0x52, 0x02, 0xbd, 0xe2, 0x07, 0x96, 0x3d, 0x5a, 0x9e, 0xc6, 0xbc,
  0x43, 0x63, 0x6f, 0xbb, 0x3f, 0xd7, 0xab, 0x3d, 0x1a, 0x6a, 0x91, 0xbc,
  0x59, 0x83, 0xe3, 0x3b, 0x29, 0x19, 0x8f, 0x3d, 0x49, 0xe9, 0xbf, 0x3e,
  0x56, 0x70, 0xf9, 0xbd, 0x29, 0x0e, 0x7b, 0xbe, 0xf8, 0x91, 0xa0, 0xbe,
  0xd7, 0x9f, 0xdc, 0x3d, 0xe7, 0x30, 0x61, 0x3e, 0x0c, 0xc0, 0xc2, 0x3e,
  0xf4, 0xe3, 0xd6, 0xbd, 0x5a, 0x98, 0xb2, 0xbc, 0xf7, 0x8a, 0x8b, 0xbc,
  0xbd, 0x91, 0x93, 0x3d, 0xfe, 0xbf, 0x1e, 0x3d, 0xea, 0x1c, 0x02, 0xbe,
  0x8b, 0xa6, 0x04, 0x3f, 0x6f, 0x0a, 0x6b, 0xbe, 0xe1, 0x39, 0x1b, 0xbd,
  0xd6, 0xbb, 0x39, 0xbd, 0xde, 0x0d, 0x4d, 0xbe, 0x18, 0xca, 0x11, 0x3e,
  0x00, 0xe0, 0x9d, 0xbe, 0x95, 0xfe, 0x4f, 0x3e, 0xde, 0xf1, 0x19, 0x3d,
  0xaf, 0x8e, 0x17, 0xbe, 0xee, 0x58, 0x69, 0x3e, 0x71, 0x06, 0xf9, 0x38,
  0x02, 0x58, 0x52, 0xbd, 0xa0, 0x9f, 0x74, 0xbd, 0xb2, 0xee, 0x5a, 0xbd,
  0x75, 0x39, 0x8d, 0xbd, 0x99, 0x1c, 0x6f, 0xbd, 0x8b, 0xc7, 0x78, 0xbd,
  0x1f, 0x90, 0x5c, 0xbd, 0x21, 0x7b, 0xd7, 0xbc, 0xf2, 0x87, 0x84, 0xbd,
  0x15, 0x5f, 0x6f, 0xbd, 0x27, 0x28, 0x31, 0xbd, 0x76, 0xb2, 0x8d, 0xbd,
  0x5e, 0x48, 0x12, 0x3e, 0x87, 0x4d, 0x58, 0xbd, 0x72, 0x77, 0xfe, 0x3d,
  0x54, 0xe6, 0xa0, 0xbd, 0x75, 0x2a, 0xe7, 0x3d, 0xcd, 0x1a, 0xc5, 0x3c,
  0x49, 0x85, 0x05, 0xbd, 0x08, 0x7f, 0xdc, 0x3d, 0x4e, 0xed, 0x4b, 0x3e,
  0x14, 0x2c, 0xe6, 0xbc, 0xab, 0xd7, 0xb6, 0x3e, 0x2c, 0xd2, 0xdd, 0x3b,
  0x02, 0xc9, 0x3c, 0xbd, 0xda, 0xd0, 0x61, 0xbd, 0xb1, 0x15, 0x03, 0xbd,
  0xce, 0xb5, 0x1e, 0x3d, 0x90, 0x10, 0xac, 0x3c, 0xcf, 0x4d, 0xa0, 0xbd,
  0xa7, 0x79, 0xe5, 0xbd, 0xba, 0x12, 0x3b, 0xbd, 0x0e, 0x35, 0x2e, 0xbc,
  0x6d, 0xb4, 0xa7, 0xbd, 0x16, 0xbf, 0x1c, 0xbd, 0x78, 0xe9, 0x3f, 0xbd,
  0xce, 0x0f, 0x20, 0x3d, 0x72, 0xae, 0x8b, 0xbe, 0x33, 0x15, 0x2e, 0xbe,
  0xa7, 0xbb, 0x0d, 0xbe, 0x42, 0x92, 0xdf, 0x3d, 0x24, 0x44, 0xf8, 0x3e,
  0x31, 0x76, 0x02, 0x3e, 0x2f, 0x6b, 0x93, 0x3d, 0x63, 0xb5, 0xaa, 0xbe,
  0x46, 0x13, 0x90, 0x3c, 0x99, 0x39, 0xd1, 0xbe, 0x40, 0x18, 0xda, 0xbd,
  0x72, 0x87, 0x52, 0x3d, 0x3e, 0xcc, 0xf3, 0x3d, 0x63, 0x8b, 0x63, 0xbd,
  0x39, 0x03, 0xab, 0x3c, 0x2b, 0x18, 0x95, 0x3b, 0x48, 0x91, 0xb1, 0xbd,
  0x60, 0x4c, 0x23, 0x3d, 0xd7, 0x4e, 0x9e, 0x3d, 0x69, 0x1d, 0x45, 0x3e,
  0x3d, 0x61, 0x3e, 0x3d, 0xe8, 0x85, 0x23, 0xbe, 0xba, 0xdf, 0xff, 0xff,
  0x10, 0x00, 0x00, 0x00, 0x09, 0x00, 0x00, 0x00, 0x1c, 0x00, 0x00, 0x00,
  0x38, 0x00, 0x00, 0x00, 0x04, 0x00, 0x00, 0x00, 0x08, 0x00, 0x00, 0x00,
  0x04, 0x00, 0x00, 0x00, 0x03, 0x00, 0x00, 0x00, 0x01, 0x00, 0x00, 0x00,
  0x18, 0x00, 0x00, 0x00, 0x73, 0x65, 0x71, 0x75, 0x65, 0x6e, 0x74, 0x69,
  0x61, 0x6c, 0x2f, 0x63, 0x6f, 0x6e, 0x76, 0x32, 0x64, 0x2f, 0x43, 0x6f,
  0x6e, 0x76, 0x32, 0x44, 0x00, 0x00, 0x00, 0x00, 0x30, 0xdf, 0xff, 0xff,
  0x3a, 0xe0, 0xff, 0xff, 0x04, 0x00, 0x00, 0x00, 0x00, 0x01, 0x00, 0x00,
  0x4d, 0xd0, 0x1f, 0x3e, 0x37, 0x05, 0xee, 0x3d, 0x86, 0x15, 0xab, 0x3e,
  0x61, 0xaf, 0x6e, 0xbd, 0xf0, 0xd3, 0xb0, 0xbe, 0x91, 0xb0, 0xe5, 0xbe,
  0x9b, 0x30, 0x8a, 0x3e, 0x1a, 0x48, 0xa6, 0xbe, 0x72, 0x5d, 0x2d, 0xbe,
  0x41, 0xa2, 0x3e, 0x3e, 0x59, 0xb1, 0xdf, 0x3d, 0x4e, 0x9b, 0x79, 0xbd,
  0x50, 0x1a, 0xd2, 0xbd, 0x29, 0xf8, 0xa2, 0x3e, 0x28, 0x73, 0xd8, 0xbc,
  0xd4, 0xcc, 0xe8, 0xbe, 0xbc, 0x49, 0x13, 0x3e, 0x0e, 0x02, 0xb0, 0xbe,
  0xf2, 0x8e, 0xc7, 0x3e, 0x88, 0x29, 0x2c, 0xbf, 0x5a, 0x7a, 0xf5, 0x3c,
  0x08, 0x99, 0xac, 0xbe, 0xb0, 0xea, 0x5b, 0xbe, 0x78, 0x42, 0xa5, 0xbd,
  0xdb, 0x83, 0x5d, 0xbe, 0x53, 0xb7, 0x38, 0x3e, 0x88, 0x5c, 0x18, 0x3e,
  0x42, 0xad, 0x44, 0x3b, 0xcd, 0x19, 0x16, 0xbe, 0xce, 0xd5, 0x0e, 0xbf,
  0x26, 0xf1, 0x54, 0xbe, 0x67, 0x6f, 0x66, 0x3e, 0xee, 0x82, 0x3e, 0x3e,
  0x0c, 0x0c, 0x1c, 0xbc, 0x97, 0xcd, 0xa6, 0x3e, 0x3f, 0x7f, 0x02, 0xbf,
  0x7e, 0x9b, 0x3d, 0x3d, 0xfe, 0x66, 0xb1, 0xbe, 0xeb, 0x99, 0x77, 0x3e,
  0xa0, 0xcf, 0xbb, 0xbe, 0xce, 0xfe, 0x3a, 0xbe, 0x54, 0x76, 0xdd, 0x3d,
  0x75, 0x07, 0x86, 0x3d, 0x3b, 0xd6, 0xbe, 0xba, 0x67, 0x16, 0x46, 0xbe,
  0xb4, 0x86, 0x38, 0xbf, 0xe1, 0xa5, 0x37, 0x3e, 0xe2, 0x8c, 0xaa, 0x3e,
  0x51, 0x7e, 0x08, 0x3e, 0x79, 0x64, 0xf1, 0xbc, 0xb9, 0x62, 0xb1, 0x3e,
  0x7c, 0xcb, 0x59, 0xbf, 0xec, 0xd7, 0xd3, 0xbd, 0xc7, 0x74, 0xe4, 0x3e,
  0x64, 0x0b, 0xe5, 0xbd, 0xf8, 0x1b, 0x1f, 0x3d, 0x2c, 0xd3, 0x9f, 0xbe,
  0x0d, 0x38, 0xe7, 0x3d, 0xa6, 0xaf, 0x2c, 0x3e, 0x12, 0x13, 0x08, 0xbe,
  0x25, 0xcd, 0x45, 0xbe, 0x5a, 0x1b, 0x5b, 0xbf, 0xba, 0x61, 0x09, 0xbe,
  0xeb, 0x10, 0x9c, 0xbd, 0x12, 0xe1, 0xff, 0xff, 0x10, 0x00, 0x00, 0x00,
  0x08, 0x00, 0x00, 0x00, 0x14, 0x00, 0x00, 0x00, 0x30, 0x00, 0x00, 0x00,
  0x02, 0x00, 0x00, 0x00, 0x04, 0x00, 0x00, 0x00, 0x10, 0x00, 0x00, 0x00,
  0x19, 0x00, 0x00, 0x00, 0x73, 0x65, 0x71, 0x75, 0x65, 0x6e, 0x74, 0x69,
  0x61, 0x6c, 0x2f, 0x64, 0x65, 0x6e, 0x73, 0x65, 0x5f, 0x31, 0x2f, 0x4d,
  0x61, 0x74, 0x4d, 0x75, 0x6c, 0x00, 0x00, 0x00, 0x80, 0xe0, 0xff, 0xff,
  0x8a, 0xe1, 0xff, 0xff, 0x04, 0x00, 0x00, 0x00, 0x00, 0x1c, 0x00, 0x00,
  0xb7, 0xc5, 0x86, 0xbd, 0xfc, 0x23, 0x62, 0x3e, 0xc7, 0x8b, 0x13, 0x3d,
  0xdf, 0xcb, 0x01, 0xbc, 0xfa, 0x98, 0x87, 0xbe, 0x00, 0xe1, 0x74, 0x3e,
  0xe2, 0xf7, 0xb8, 0xbe, 0x06, 0xf3, 0xc1, 0xbe, 0x71, 0x09, 0xd2, 0xbe,
  0xc1, 0x1a, 0xba, 0x3e, 0xe2, 0xb3, 0x06, 0xbe, 0x07, 0x30, 0x8d, 0xbe,
  0x63, 0x63, 0x81, 0xbe, 0x9f, 0xc1, 0xf8, 0xbd, 0x7e, 0x1a, 0x29, 0xbe,
  0x4a, 0xcb, 0x8a, 0xbe, 0x39, 0x66, 0x84, 0xbe, 0x19, 0x66, 0xab, 0x3d,
  0x95, 0x1d, 0x85, 0x3d, 0x39, 0x85, 0xcd, 0x3d, 0xfc, 0x7e, 0x0a, 0x3e,
  0x62, 0xec, 0x39, 0xbd, 0xda, 0x8f, 0xca, 0xbe, 0xe9, 0xbe, 0xec, 0xbc,
  0x66, 0x99, 0x0d, 0xbd, 0x80, 0xaa, 0x6b, 0x3e, 0xce, 0x0f, 0x8b, 0xbe,
  0xd7, 0x74, 0x9d, 0x3e, 0x66, 0x60, 0xbe, 0xbe, 0x90, 0xd2, 0x83, 0xbe,
  0x74, 0xdf, 0x95, 0x3d, 0x9d, 0x15, 0x8a, 0xbd, 0x34, 0x32, 0xc9, 0xbd,
  0x8c, 0x52, 0x36, 0x3e, 0xb1, 0x8d, 0x74, 0x3e, 0xd0, 0x2e, 0xbc, 0x3d,
  0x1c, 0x63, 0xa3, 0x3d, 0x95, 0x44, 0xc6, 0x3d, 0xf3, 0xef, 0x10, 0xbf,
  0x9e, 0x62, 0x60, 0x3d, 0x41, 0xb4, 0xc1, 0xbc, 0x16, 0xa9, 0x0b, 0x3e,
  0x6c, 0x8d, 0xd0, 0xbe, 0xbd, 0x15, 0x8f, 0x3e, 0xd7, 0xac, 0x4a, 0xbe,
  0x75, 0x40, 0x8b, 0x3e, 0x16, 0x40, 0x77, 0x3a, 0x59, 0xc9, 0x2e, 0x3d,
  0x51, 0x4a, 0x86, 0xbd, 0x91, 0x0b, 0xba, 0xbd, 0x73, 0x14, 0x8b, 0x3e,
  0xd4, 0xc0, 0xa0, 0x3a, 0xc0, 0xb9, 0x95, 0xbd, 0xf2, 0x21, 0x05, 0x3c,
  0xb4, 0x54, 0x00, 0xbe, 0x0b, 0xf3, 0x53, 0x3d, 0xae, 0x90, 0x78, 0xbc,
  0x2d, 0x71, 0x5a, 0x3d, 0x34, 0xc8, 0x3f, 0xbe, 0x2f, 0x67, 0x17, 0xbd,
  0x50, 0x93, 0x7f, 0xbe, 0x93, 0x91, 0xec, 0x3e, 0xc3, 0xa6, 0x18, 0xbd,
  0x67, 0x15, 0x0d, 0x3d, 0x1a, 0x26, 0x32, 0xbd, 0xf6, 0x45, 0x87, 0xbc,
  0x97, 0xb8, 0x37, 0x3e, 0xcb, 0x31, 0x62, 0xbc, 0xe2, 0x56, 0x84, 0x3d,
  0xb5, 0x19, 0x5a, 0xbe, 0x1d, 0x6d, 0x8b, 0xbe, 0x90, 0x6d, 0xb6, 0x3c,
  0x4d, 0xbe, 0xa3, 0xbc, 0x06, 0x5c, 0xd5, 0x3e, 0xde, 0x19, 0x60, 0xbe,
  0x70, 0x1f, 0x76, 0x3e, 0xc2, 0xe1, 0xbb, 0xbe, 0xe6, 0x18, 0x11, 0xbe,
  0xfa, 0x6a, 0xb7, 0xbc, 0xd1, 0xd3, 0xa1, 0xbc, 0x6a, 0x17, 0x47, 0x3c,
  0xeb, 0x67, 0xc5, 0xbd, 0x04, 0x3c, 0x85, 0x3e, 0xeb, 0xb4, 0xb7, 0xbd,
  0x72, 0x4a, 0x19, 0x3e, 0x9a, 0x50, 0x77, 0xbe, 0x6e, 0x05, 0x11, 0xbf,
  0x6f, 0x9e, 0x97, 0xbc, 0x7e, 0x96, 0xb4, 0x3b, 0x76, 0x10, 0xe9, 0x3e,
  0x9e, 0xc1, 0xb7, 0xbe, 0x18, 0xd3, 0xf4, 0xbd, 0x21, 0xef, 0x2a, 0xbf,
  0x25, 0xd6, 0x7d, 0xbe, 0x36, 0xc0, 0x8b, 0x3d, 0x6c, 0x6a, 0x31, 0x3d,
  0xd3, 0x3b, 0x7e, 0x3d, 0xdb, 0xd1, 0x10, 0xbe, 0xc8, 0xde, 0x0d, 0xbf,
  0x94, 0x83, 0xfd, 0xbe, 0xb7, 0x57, 0x85, 0x3d, 0x48, 0xf8, 0x22, 0x3d,
  0x0c, 0x1e, 0x1c, 0xbf, 0x01, 0x43, 0xb4, 0x3d, 0xa7, 0x66, 0x0a, 0x3e,
  0xbe, 0x6d, 0x80, 0x3e, 0x3c, 0xc9, 0xb7, 0x3d, 0xd6, 0x46, 0x54, 0x3e,
  0xae, 0x94, 0x00, 0xbf, 0x10, 0x49, 0x82, 0xbe, 0xf9, 0xf0, 0x84, 0x3e,
  0xd4, 0x1f, 0x15, 0x3e, 0xe2, 0x69, 0x1d, 0xbe, 0x56, 0x87, 0x3a, 0x3e,
  0xc6, 0x2e, 0xd2, 0x3d, 0x05, 0xdd, 0x71, 0xbe, 0xf0, 0xd9, 0x16, 0xbe,
  0xb5, 0x1d, 0x98, 0xbd, 0x5b, 0x46, 0x88, 0x3c, 0x13, 0x19, 0x67, 0x3d,
  0x3e, 0x98, 0x76, 0xbe, 0xc3, 0xfc, 0x3d, 0xbe, 0x96, 0xcf, 0x3e, 0x3d,
  0xc2, 0x76, 0x63, 0xbc, 0x01, 0x99, 0x57, 0xbe, 0xb7, 0x08, 0x2e, 0xbc,
  0x34, 0xb1, 0x91, 0xbe, 0xf4, 0x33, 0x9b, 0x3d, 0xd9, 0x92, 0x32, 0x3d,
  0x13, 0x27, 0x59, 0xbe, 0xe4, 0x51, 0x5a, 0xbe, 0x87, 0xaf, 0x34, 0xbe,
  0xe8, 0x95, 0x15, 0xbe, 0x07, 0x97, 0xc1, 0x3d, 0x95, 0x59, 0xd7, 0x3d,
  0x64, 0xc3, 0xfa, 0xbd, 0x4c, 0x1f, 0x4c, 0xbd, 0xe5, 0x0d, 0x2a, 0xbd,
  0xc0, 0x7c, 0x8a, 0xbe, 0x90, 0xf6, 0xb7, 0xbd, 0xdc, 0x7f, 0x01, 0xbe,
  0xaf, 0x57, 0x80, 0xbd, 0x44, 0x26, 0x99, 0x3d, 0x49, 0x82, 0xe3, 0x3d,
  0x6a, 0x19, 0x8d, 0xbc, 0x6f, 0x71, 0x08, 0xbe, 0x29, 0xa5, 0x05, 0x3e,
  0xf0, 0x04, 0x4e, 0xbc, 0x52, 0x32, 0x35, 0xbd, 0xea, 0x26, 0x7e, 0xbd,
  0x49, 0xd5, 0xe8, 0xbc, 0x96, 0xeb, 0xa9, 0xbe, 0x3f, 0xa6, 0xc9, 0xbc,
  0xa2, 0x27, 0x0d, 0xbe, 0x38, 0x6d, 0x0d, 0x3d, 0x7a, 0x1d, 0x13, 0x3e,
  0xfc, 0x62, 0x80, 0xbe, 0x4b, 0x5a, 0x08, 0xbe, 0x92, 0x53, 0x7a, 0xbe,
  0xaf, 0x35, 0x31, 0x3e, 0x4b, 0xd3, 0xf7, 0x3d, 0x79, 0x61, 0xa9, 0xbd,
  0xf2, 0x7f, 0x11, 0xbd, 0x5d, 0x8f, 0x83, 0xbd, 0xf1, 0x6e, 0x22, 0x3e,
  0x71, 0x6a, 0x41, 0xbe, 0x71, 0x0b, 0x82, 0xbe, 0x27, 0x23, 0xfc, 0xbb,
  0x84, 0xda, 0x42, 0xbe, 0xce, 0x96, 0x40, 0xbe, 0x89, 0x74, 0x5e, 0xbe,
  0x05, 0xd0, 0x15, 0xbe, 0xc7, 0x21, 0x75, 0x3d, 0x4e, 0x33, 0x00, 0x3d,
  0x99, 0x5e, 0xfd, 0x3d, 0xbd, 0x44, 0x40, 0xbe, 0xa3, 0xca, 0x4e, 0xbe,
  0x13, 0xcb, 0x89, 0xbd, 0x8c, 0x01, 0xcb, 0x3d, 0x3a, 0x3d, 0x5a, 0xbd,
  0x8e, 0x79, 0x8c, 0x3d, 0x25, 0xff, 0xf6, 0xbd, 0xce, 0x3c, 0x9a, 0xbb,
  0xc0, 0x6e, 0x8b, 0xbe, 0x2c, 0xb2, 0x85, 0xbe, 0x26, 0x73, 0xa2, 0xbd,
  0xcf, 0xaa, 0x77, 0xbe, 0x4b, 0xfb, 0x70, 0x3c, 0x2d, 0x7d, 0x52, 0xbe,
  0xcc, 0xb8, 0xaa, 0xbd, 0xe4, 0x08, 0x4d, 0xbe, 0x11, 0x35, 0x30, 0xbd,
  0x05, 0xc9, 0x1e, 0xbe, 0x2f, 0x8f, 0x81, 0x3d, 0x66, 0x5c, 0x27, 0x3c,
  0xb4, 0x12, 0x0e, 0x3d, 0x4a, 0x72, 0xf1, 0xbd, 0x99, 0x77, 0xc2, 0xbd,
  0x53, 0x98, 0x6b, 0xbe, 0x5c, 0x07, 0x13, 0xbe, 0x58, 0x86, 0x13, 0xbe,
  0xe4, 0xce, 0x97, 0x3c, 0xa4, 0x4b, 0x62, 0x3d, 0x38, 0x72, 0x42, 0xbe,
  0x5f, 0xac, 0x45, 0xbc, 0xda, 0xad, 0xb7, 0xbc, 0xd7, 0xe9, 0xdb, 0x3c,
  0x72, 0x8e, 0x11, 0xbe, 0x20, 0x38, 0xf3, 0xba, 0xda, 0x0a, 0x4c, 0x3e,
  0xbb, 0x6a, 0xc9, 0xbd, 0x9b, 0xe4, 0x5d, 0xbd, 0x47, 0xa8, 0x4d, 0xbe,
  0x73, 0x87, 0x72, 0xbe, 0x92, 0xfa, 0x8d, 0xbe, 0x89, 0xb2, 0x66, 0xbd,
  0xd0, 0xb3, 0x61, 0xbe, 0xa0, 0x45, 0x58, 0xbe, 0xde, 0x71, 0xb3, 0xbc,
  0xbf, 0x6c, 0xcd, 0xbc, 0x8a, 0x98, 0x0e, 0xbe, 0xa3, 0x22, 0x9f, 0xbc,
  0x02, 0xc5, 0x05, 0xbe, 0xbf, 0x4e, 0x68, 0x3c, 0x9c, 0x4e, 0xcc, 0xbe,
  0xec, 0xa0, 0xb8, 0xbe, 0x8b, 0x6b, 0x44, 0xbf, 0xdb, 0x11, 0x79, 0xbd,
  0x4d, 0x98, 0xa7, 0xbe, 0xd5, 0x55, 0x17, 0xbf, 0xed, 0x57, 0xaa, 0xbe,
  0x8b, 0x86, 0xbf, 0xbe, 0xd8, 0x8c, 0xc3, 0xbe, 0x89, 0x85, 0xb4, 0x3e,
  0xf3, 0x56, 0xc3, 0xbe, 0x52, 0x50, 0x8c, 0x3e, 0x74, 0xe8, 0xf2, 0xbc,
  0xed, 0xc1, 0xbe, 0x3e, 0x4d, 0x9f, 0x7a, 0xbe, 0xd7, 0x6f, 0xd5, 0xbe,
  0x29, 0xed, 0x84, 0xbe, 0x8d, 0xea, 0x74, 0xbd, 0x93, 0xa2, 0x2f, 0xbf,
  0xe1, 0xd4, 0x2e, 0x3d, 0x9d, 0x97, 0xbd, 0x3c, 0x40, 0xdd, 0x73, 0xbe,
  0x2f, 0xd6, 0x6e, 0x3e, 0x48, 0x80, 0x17, 0x3d, 0x58, 0x67, 0xbd, 0x3d,
  0x04, 0xb8, 0x54, 0xbd, 0x1d, 0x52, 0xab, 0xbd, 0xee, 0x82, 0xd4, 0x3e,
  0x1a, 0xc2, 0x36, 0xbc, 0x47, 0x2c, 0xc6, 0x3e, 0xc8, 0x82, 0x92, 0xbd,
  0x9c, 0x44, 0x33, 0xbe, 0x87, 0xd9, 0x48, 0xbe, 0xcc, 0x14, 0xcf, 0xbd,
  0x78, 0xa5, 0x43, 0xbf, 0x68, 0xf0, 0xc9, 0xbd, 0x25, 0x02, 0x1f, 0x3e,
  0xd0, 0xcc, 0x4d, 0xbd, 0x86, 0xe6, 0x67, 0x3e, 0x6d, 0x91, 0x71, 0xbd,
  0x06, 0x04, 0x55, 0xbd, 0x41, 0xbf, 0x4e, 0xbc, 0x28, 0x9d, 0x04, 0xbd,
  0xc8, 0x43, 0x2d, 0x3e, 0xd4, 0xe0, 0x50, 0x3d, 0x52, 0x75, 0xb8, 0x3e,
  0xa6, 0x76, 0x04, 0xbe, 0x32, 0xe9, 0x9c, 0x3d, 0x96, 0x8c, 0x35, 0x3c,
  0x01, 0x75, 0x2b, 0xbb, 0x0e, 0xfe, 0x80, 0xbf, 0x46, 0x2a, 0xbe, 0xbc,
  0xfe, 0x13, 0x38, 0x3d, 0x54, 0xe6, 0xca, 0xbb, 0x43, 0x6f, 0xcf, 0xbc,
  0x15, 0xcc, 0x3e, 0xbd, 0xf1, 0xc2, 0x39, 0xbc, 0xc3, 0x32, 0x00, 0xbd,
  0xc5, 0x34, 0x96, 0x3d, 0x4d, 0x1e, 0x15, 0x3e, 0xbc, 0x36, 0x4e, 0x3d,
  0x0d, 0xa2, 0x80, 0x3e, 0x05, 0xb4, 0xce, 0xbd, 0xe0, 0x83, 0xe7, 0xbd,
  0x26, 0x63, 0x50, 0xbe, 0x0b, 0xac, 0x15, 0x3e, 0xca, 0x17, 0x49, 0xbf,
  0x6f, 0x1c, 0xc1, 0xbc, 0xba, 0xf3, 0x50, 0x3d, 0x19, 0x6c, 0x0b, 0xbe,
  0x93, 0x3b, 0x18, 0xbe, 0x7c, 0x70, 0x84, 0x3d, 0x85, 0x6e, 0x0e, 0x3d,
  0x77, 0x1f, 0xc2, 0x3d, 0xd5, 0xd7, 0x93, 0xbe, 0x22, 0x0b, 0x07, 0xbe,
  0x9d, 0x7d, 0x4b, 0x3d, 0x39, 0x3d, 0x69, 0x3e, 0xb7, 0x6d, 0x5b, 0xbe,
  0x5b, 0x8b, 0x01, 0xbe, 0x99, 0x6b, 0x52, 0xbd, 0x31, 0x10, 0x62, 0xbe,
  0x8e, 0xbe, 0x02, 0xbf, 0xdb, 0xd6, 0x33, 0xbd, 0x5d, 0x8d, 0xf9, 0x3c,
  0xcf, 0x65, 0xd2, 0x3c, 0xda, 0x46, 0x2f, 0x3e, 0x68, 0x9d, 0xdf, 0x3d,
  0xa3, 0x88, 0x5f, 0x3c, 0x4b, 0xeb, 0x68, 0x3d, 0x3d, 0x62, 0x3d, 0x3e,
  0xce, 0xe0, 0x25, 0xbc, 0xb9, 0x38, 0xbd, 0x3d, 0xce, 0x39, 0x21, 0x3e,
  0x68, 0xf5, 0xa6, 0xbe, 0x4f, 0x7a, 0xef, 0xbc, 0x0b, 0x5c, 0x60, 0xbc,
  0x8b, 0x8c, 0x70, 0x3d, 0x8c, 0x0a, 0xfb, 0xbe, 0x04, 0x69, 0x73, 0x3d,
  0xa0, 0x7c, 0x87, 0x3d, 0xb5, 0x21, 0xc9, 0xbc, 0x70, 0xac, 0xac, 0x3d,
  0x97, 0x92, 0x13, 0x3d, 0x45, 0x81, 0xfa, 0xbd, 0xf3, 0x37, 0x30, 0xbd,
  0x28, 0xb4, 0x00, 0xbd, 0x28, 0xf5, 0x9c, 0x3d, 0x4b, 0x0c, 0x95, 0x3d,
  0x52, 0x75, 0x98, 0x3e, 0x57, 0xc0, 0x99, 0xbe, 0x44, 0x89, 0x2c, 0xbe,
  0xd0, 0x9b, 0x81, 0x3d, 0xe0, 0x97, 0x42, 0x3e, 0x00, 0xdb, 0xa2, 0x3e,
  0x31, 0x99, 0xb6, 0xbe, 0x53, 0xd2, 0x43, 0xbd, 0x55, 0x7f, 0x2f, 0x3f,
  0xe5, 0x2b, 0x89, 0xbe, 0xc1, 0xe3, 0xb7, 0xbe, 0xb4, 0x15, 0x3d, 0xbe,
  0x01, 0xde, 0x09, 0xbc, 0x6c, 0x23, 0x5c, 0x3c, 0xe8, 0x0b, 0x44, 0xbd,
  0x6d, 0xab, 0xa9, 0xbe, 0x7c, 0x1b, 0x7e, 0xbe, 0x81, 0xd7, 0x30, 0xbe,
  0x64, 0x8e, 0xd2, 0x3d, 0x3e, 0xd1, 0xf0, 0xbd, 0x3e, 0xb6, 0xa5, 0xbc,
  0x65, 0xa2, 0x18, 0x3e, 0x1e, 0xfe, 0xcf, 0xbe, 0x11, 0x36, 0xbe, 0xbd,
  0x44, 0xf3, 0xe5, 0x3e, 0x42, 0xab, 0xc0, 0xbd, 0xd4, 0xee, 0x64, 0x3c,
  0x97, 0xbc, 0xc4, 0xbd, 0xaf, 0x27, 0xfd, 0x3d, 0xca, 0x8d, 0x58, 0x3e,
  0x14, 0x6b, 0x20, 0xbe, 0xea, 0x66, 0x53, 0xbe, 0xea, 0xf9, 0x6e, 0xbd,
  0x48, 0x6b, 0xc4, 0xbc, 0x59, 0x70, 0x4b, 0xbe, 0xd3, 0x40, 0x26, 0xbe,
  0xf3, 0x40, 0x89, 0x3d, 0xa0, 0x09, 0x95, 0x3e, 0x3b, 0xde, 0xe9, 0xbd,
  0xd6, 0xc1, 0xfd, 0x3d, 0x03, 0x87, 0x1e, 0x3f, 0x9c, 0x60, 0x5d, 0xbd,
  0x0c, 0xd2, 0x7e, 0xbe, 0x68, 0x2a, 0xe9, 0xbd, 0x0e, 0xea, 0xc7, 0x3e,
  0x53, 0x84, 0x48, 0x3d, 0x49, 0x88, 0xb8, 0x3d, 0x3b, 0xcd, 0x85, 0xbe,
  0x24, 0x00, 0xb6, 0xbe, 0x08, 0x42, 0x67, 0xbe, 0x67, 0x4c, 0xe9, 0xbc,
  0xae, 0xbc, 0x6a, 0xbe, 0x94, 0x08, 0xa6, 0x3c, 0x08, 0x7f, 0x21, 0x3e,
  0xa9, 0x7b, 0x89, 0xbe, 0xf6, 0xda, 0xa3, 0xbc, 0x5b, 0x2a, 0x1a, 0x3f,
  0xfc, 0x4f, 0x82, 0xbe, 0xc4, 0x80, 0x67, 0xbe, 0x8c, 0x7f, 0x7d, 0xbd,
  0x6a, 0xa5, 0x9c, 0x3e, 0xd0, 0x9f, 0xf6, 0x3d, 0x85, 0x8e, 0x3a, 0xbe,
  0x0d, 0x87, 0xc3, 0xbe, 0x9e, 0x33, 0x01, 0xbe, 0x6f, 0x3d, 0x13, 0xbe,
  0xae, 0xa6, 0x8f, 0x3d, 0xf1, 0x2e, 0x50, 0x3d, 0x63, 0x54, 0x10, 0x3e,
  0x9d, 0xf3, 0x1b, 0x3e, 0x3d, 0x77, 0x8e, 0xbe, 0xcc, 0x5f, 0x1e, 0xbe,
  0xa6, 0xae, 0x3a, 0x3f, 0x8c, 0xea, 0x2e, 0xbe, 0x8b, 0xd1, 0xdc, 0xbe,
  0xa4, 0x46, 0x91, 0xbe, 0x23, 0x3d, 0x0e, 0x3e, 0x5b, 0xb5, 0x61, 0x3d,
  0xc4, 0xbf, 0x85, 0x3b, 0xd3, 0x47, 0x9c, 0xbe, 0x88, 0x16, 0x96, 0xbe,
  0x4a, 0x6f, 0x88, 0xbe, 0x4b, 0xd9, 0x7a, 0x3e, 0x89, 0x65, 0x38, 0x3e,
  0x10, 0x28, 0xef, 0xbb, 0x5a, 0xb1, 0xe8, 0x3d, 0x33, 0xfd, 0x6c, 0xbd,
  0x2e, 0x84, 0xa7, 0xbd, 0x0b, 0xda, 0x91, 0x3e, 0xd7, 0xda, 0x20, 0xbe,
  0xc1, 0x55, 0x14, 0xbe, 0xaf, 0x39, 0x9c, 0xbe, 0xcf, 0x31, 0xc7, 0x3c,
  0x53, 0xe9, 0x05, 0x3e, 0xb5, 0x3f, 0xfc, 0xbc, 0x66, 0x67, 0x35, 0xbd,
  0x6a, 0x7f, 0x7a, 0xbe, 0xdc, 0x69, 0x8a, 0xbd, 0xff, 0x2b, 0xe7, 0xbd,
  0x92, 0xda, 0x64, 0xbe, 0xa8, 0x44, 0x03, 0xbe, 0xd2, 0x94, 0xaa, 0xbd,
  0xe5, 0xa8, 0xac, 0xbe, 0x2c, 0xc8, 0x3f, 0xbe, 0x50, 0x1c, 0x20, 0x3e,
  0x1e, 0x58, 0xf6, 0xbc, 0x28, 0x30, 0x8f, 0xbe, 0x24, 0xf9, 0xfb, 0xbe,
  0x58, 0x4d, 0xd0, 0x3e, 0xd9, 0x1f, 0x8f, 0xbe, 0xfe, 0xae, 0xa9, 0xbe,
  0x99, 0x0c, 0xb6, 0xbe, 0xec, 0xdc, 0xbd, 0xbd, 0x64, 0x46, 0x2b, 0xbe,
  0x8f, 0x2f, 0x8a, 0xbe, 0x22, 0xb6, 0xab, 0xbd, 0x4e, 0x23, 0xc6, 0x3d,
  0x9d, 0xd2, 0xc2, 0xbc, 0xfa, 0x7a, 0x23, 0xbe, 0xc4, 0x4c, 0x2a, 0xbe,
  0x28, 0x6f, 0x42, 0xbe, 0x4d, 0xb5, 0xdf, 0xba, 0x3e, 0x45, 0x36, 0xbd,
  0x11, 0xa4, 0xd1, 0xbd, 0x66, 0xee, 0xcf, 0xbd, 0xe4, 0x61, 0x8f, 0x3d,
  0x05, 0xbb, 0x71, 0xbe, 0xd2, 0x8a, 0x33, 0xbd, 0x20, 0xd5, 0xe3, 0x3d,
  0x59, 0x25, 0x07, 0xbe, 0x2e, 0x13, 0x8d, 0x3d, 0xfb, 0x42, 0x6a, 0xbe,
  0x90, 0x3f, 0x49, 0xbe, 0x1b, 0x59, 0x52, 0xbb, 0xfa, 0xfe, 0xc2, 0xbd,
  0x27, 0x7b, 0xab, 0xbd, 0x09, 0x48, 0xeb, 0xbc, 0x4a, 0x94, 0x9a, 0xbd,
  0xcf, 0xb9, 0x58, 0xbe, 0xf6, 0xdf, 0x26, 0xbe, 0x6d, 0x7a, 0x8a, 0xbd,
  0xae, 0xf0, 0x50, 0xbc, 0xa3, 0xa5, 0x3c, 0xbd, 0x3e, 0xe4, 0xe6, 0xbc,
  0x5b, 0x8f, 0xd1, 0x3a, 0x87, 0xbc, 0x3e, 0xbd, 0x8d, 0x80, 0xff, 0xbd,
  0x1b, 0x51, 0x66, 0xbd, 0x9e, 0x2e, 0x07, 0x3e, 0xbf, 0xe7, 0x56, 0x3d,
  0xa8, 0x82, 0xf5, 0x3c, 0x8e, 0x72, 0x0d, 0xbe, 0xa7, 0x4c, 0xb8, 0x3d,
  0x4a, 0x60, 0x04, 0x3e, 0xc2, 0x8e, 0x33, 0x3d, 0x59, 0x4b, 0x01, 0xbe,
  0x4d, 0x22, 0x93, 0xbd, 0xef, 0x88, 0xe0, 0xbd, 0xcf, 0x0b, 0xd2, 0xbd,
  0x5e, 0x84, 0xd0, 0xbd, 0xf2, 0xbf, 0x05, 0x3e, 0x37, 0x48, 0x5c, 0x3c,
  0xe5, 0x2c, 0x5c, 0xbc, 0x47, 0x3c, 0x05, 0xbe, 0x8e, 0x64, 0x2b, 0x3e,
  0x22, 0x62, 0x83, 0xbd, 0xc8, 0x3c, 0xa7, 0x37, 0x53, 0x8b, 0xb7, 0xbb,
  0x23, 0x4b, 0x2d, 0xbe, 0xd2, 0x1e, 0x8b, 0x3d, 0xf0, 0x9a, 0xec, 0x3d,
  0x42, 0x37, 0x56, 0x3d, 0xc0, 0xb0, 0x40, 0xbc, 0x56, 0xec, 0x37, 0xbe,
  0x21, 0x7e, 0x45, 0xbd, 0xfb, 0xc1, 0x9e, 0xbe, 0x96, 0xb7, 0x89, 0x3d,
  0x46, 0xdb, 0x0f, 0x3d, 0x90, 0xa5, 0x41, 0x3e, 0x98, 0x44, 0x55, 0x3d,
  0x66, 0x7c, 0x13, 0xbe, 0x01, 0xfe, 0xf8, 0xbd, 0xd8, 0xd5, 0x2e, 0xbe,
  0xa4, 0xa4, 0x06, 0x3e, 0x2b, 0x87, 0xd9, 0x3d, 0x00, 0x2f, 0x48, 0x3c,
  0xeb, 0x8e, 0x6c, 0xbe, 0xc7, 0xee, 0xd3, 0xbd, 0x91, 0x5f, 0x9b, 0xbd,
  0x8e, 0x7b, 0x0b, 0xbe, 0x75, 0xc3, 0x85, 0xbe, 0x5e, 0xb3, 0x55, 0xbe,
  0x71, 0x68, 0x0f, 0x3e, 0x8c, 0xf5, 0x9f, 0x3d, 0xfa, 0x2e, 0x5a, 0xbe,
  0xab, 0xdc, 0x47, 0xbe, 0xab, 0x3c, 0x3c, 0x3e, 0x17, 0xea, 0xe8, 0xbd,
  0xb8, 0xec, 0x95, 0x3b, 0xcd, 0x2b, 0xf3, 0xbd, 0x53, 0x5c, 0x4a, 0xbe,
  0xe6, 0xd9, 0x01, 0x3e, 0x7b, 0x0f, 0x24, 0xbd, 0xac, 0xf4, 0x53, 0xbe,
  0x0b, 0xc7, 0x74, 0x3d, 0x64, 0xd9, 0xf8, 0xbc, 0xa4, 0x36, 0xcb, 0xbc,
  0xee, 0x22, 0x84, 0xbe, 0x0f, 0xb2, 0x27, 0xbe, 0x68, 0x80, 0x21, 0xbe,
  0xbc, 0x9b, 0xf6, 0xbd, 0xfa, 0xb6, 0x46, 0xbe, 0x0c, 0xda, 0x44, 0xbe,
  0xda, 0x8c, 0x83, 0x3d, 0x58, 0xcb, 0x88, 0xbe, 0x46, 0xd5, 0x2a, 0x3e,
  0x64, 0xc1, 0xcb, 0xbd, 0xa0, 0x9a, 0x7c, 0x3d, 0xb7, 0x9a, 0x89, 0xbe,
  0x52, 0x22, 0x9f, 0xbd, 0x5e, 0xd4, 0x1c, 0xbe, 0x72, 0xbd, 0x6e, 0x3d,
  0x55, 0x6c, 0xb6, 0xbc, 0x1b, 0x57, 0x86, 0xbe, 0x23, 0x39, 0x8a, 0x3d,
  0x3e, 0xca, 0x90, 0xbe, 0xbb, 0x41, 0xd3, 0x3c, 0x0c, 0xda, 0x96, 0xbd,
  0x9d, 0x18, 0xc3, 0xbc, 0xab, 0x32, 0xe2, 0xbd, 0xe8, 0x6b, 0xb1, 0x3d,
  0xa6, 0x7f, 0x82, 0xbe, 0xba, 0x23, 0x86, 0xbb, 0x00, 0xf5, 0x0c, 0xbd,
  0x80, 0x69, 0xb6, 0xbd, 0xc0, 0x95, 0x3c, 0xbe, 0x52, 0x18, 0xda, 0x3b,
  0x22, 0xb2, 0xfe, 0xbc, 0x6d, 0xb0, 0x2d, 0xbb, 0x46, 0x53, 0xd5, 0xbd,
  0xe4, 0x9f, 0x96, 0xbb, 0xf2, 0x09, 0x38, 0xbe, 0x1a, 0x9d, 0x40, 0x3d,
  0xa6, 0xcd, 0x82, 0x3d, 0x0b, 0xe1, 0x80, 0x3b, 0xa6, 0x97, 0x5d, 0xbe,
  0x94, 0x49, 0x22, 0xbb, 0xe2, 0xfd, 0x43, 0x3d, 0x8b, 0xc4, 0xdc, 0x3d,
  0x8e, 0x7d, 0x73, 0xbc, 0x1b, 0xd9, 0x3f, 0xbe, 0x94, 0x27, 0xfb, 0xbc,
  0x1c, 0xe9, 0x2c, 0xbe, 0x66, 0xf1, 0xb5, 0xbd, 0xf1, 0x53, 0x89, 0xbe,
  0xf6, 0xd1, 0x85, 0xbe, 0x44, 0xb8, 0x94, 0x3d, 0xca, 0x4a, 0xc3, 0xbd,
  0x85, 0xfd, 0x80, 0x3a, 0xe3, 0x0f, 0x8f, 0xbd, 0xcd, 0xaf, 0xa0, 0x3c,
  0x21, 0x7d, 0x04, 0xbe, 0xde, 0x10, 0x4b, 0xbe, 0x57, 0x67, 0xde, 0x3c,
  0x66, 0x68, 0x9e, 0x3d, 0xb9, 0x60, 0x2a, 0x3e, 0x1a, 0x9f, 0x88, 0xbd,
  0x51, 0xc0, 0xbf, 0xbc, 0xd0, 0xc0, 0xfa, 0xbd, 0x7e, 0x2f, 0xb7, 0x3d,
  0x50, 0x84, 0x5a, 0x3c, 0xb4, 0xbe, 0x98, 0xbd, 0x57, 0x46, 0x3a, 0xbd,
  0x13, 0x0e, 0x7c, 0xbe, 0x7f, 0x32, 0xac, 0x3d, 0x45, 0xd8, 0x2f, 0xbc,
  0x9f, 0x66, 0xa3, 0xbd, 0x07, 0x29, 0xda, 0xbd, 0x64, 0xe3, 0x47, 0xbe,
  0xf5, 0x13, 0x0e, 0xbe, 0x4a, 0x79, 0x09, 0xbd, 0x00, 0x7b, 0xfc, 0xbc,
  0x5c, 0xdd, 0x3f, 0xbe, 0xa5, 0xe8, 0x5e, 0xbe, 0xc7, 0x99, 0x41, 0xbd,
  0x94, 0xf0, 0x66, 0xbd, 0xaa, 0x7d, 0x28, 0x3d, 0xde, 0x1f, 0x3b, 0xbe,
  0xf2, 0xb3, 0x92, 0xbd, 0xe0, 0xf2, 0x9f, 0xbc, 0x77, 0x25, 0x07, 0x3e,
  0x46, 0x9a, 0x1e, 0xbc, 0x71, 0x04, 0x30, 0xbe, 0xf0, 0xe9, 0x05, 0x3e,
  0xb8, 0x83, 0x3e, 0x3d, 0xc4, 0x21, 0x87, 0xbe, 0xae, 0x05, 0x14, 0xbd,
  0xce, 0xa3, 0x04, 0xbe, 0xfc, 0xf7, 0x9a, 0xbd, 0x25, 0x23, 0xf1, 0xbd,
  0x1a, 0x0c, 0x5c, 0x3d, 0x03, 0x5e, 0xd7, 0x3d, 0x73, 0x57, 0x30, 0xbe,
  0xf8, 0xad, 0x90, 0xbe, 0x32, 0x24, 0x54, 0xbd, 0xf3, 0xdb, 0xbe, 0xbb,
  0x32, 0xb5, 0x0f, 0xbc, 0x98, 0x9a, 0x01, 0xbe, 0x25, 0x47, 0xee, 0x3d,
  0x71, 0x6e, 0x3b, 0xbe, 0x0e, 0x91, 0x9a, 0xbe, 0x98, 0xb7, 0x82, 0xbd,
  0x7b, 0xe3, 0xe4, 0x3d, 0x86, 0x86, 0xd8, 0x3d, 0xfb, 0x15, 0x36, 0x3d,
  0x14, 0x35, 0xa4, 0x3b, 0x08, 0xe7, 0x85, 0xbd, 0x30, 0xe9, 0x93, 0x3d,
  0x43, 0xe1, 0xe2, 0xbd, 0x23, 0xe7, 0x85, 0xbb, 0x42, 0xc3, 0xa7, 0x3c,
  0x4c, 0x89, 0x5b, 0x3d, 0xa2, 0x48, 0xef, 0xbd, 0x77, 0xc3, 0x7a, 0xbe,
  0x50, 0xe4, 0x1b, 0xbd, 0x0b, 0x77, 0xeb, 0xbd, 0xba, 0x40, 0x74, 0xbd,
  0xad, 0x25, 0x43, 0xbe, 0xb6, 0xf8, 0xe9, 0xbd, 0x0b, 0x8b, 0xab, 0x3d,
  0x0c, 0xdd, 0x69, 0xbe, 0x42, 0xe2, 0x20, 0xbe, 0x60, 0xc6, 0xbe, 0x3a,
  0x25, 0x6a, 0x1c, 0xbe, 0xd3, 0xfe, 0x26, 0xbe, 0xaf, 0x23, 0x38, 0xbe,
  0x6e, 0xdc, 0x36, 0x3d, 0x04, 0xd6, 0x22, 0x3b, 0xe2, 0xa6, 0x9c, 0x3d,
  0xef, 0x86, 0xab, 0xbc, 0xf2, 0x16, 0x42, 0xbe, 0x27, 0x43, 0x59, 0xbd,
  0x61, 0x9b, 0x95, 0xbc, 0x0e, 0x08, 0x82, 0xbe, 0xbb, 0x1d, 0x3f, 0xbe,
  0x59, 0x4d, 0xf4, 0xbd, 0x23, 0xf1, 0x6a, 0xbe, 0x9c, 0x46, 0x35, 0x3d,
  0x92, 0x8e, 0x4e, 0xbe, 0x0e, 0xf6, 0x11, 0x3e, 0x80, 0x30, 0x3e, 0xbe,
  0x3f, 0x82, 0x2b, 0xbe, 0x70, 0xf6, 0x22, 0xbc, 0x5b, 0xa6, 0x68, 0xbe,
  0x92, 0x6d, 0x12, 0x3e, 0x91, 0x03, 0xa2, 0xbd, 0xb1, 0x33, 0x5a, 0xbe,
  0x80, 0xcb, 0x6a, 0xbe, 0x0a, 0xe0, 0x13, 0xbe, 0x9f, 0x58, 0x12, 0xbc,
  0x3c, 0xfe, 0x4d, 0xbd, 0x16, 0x41, 0xbe, 0xbc, 0x92, 0xbc, 0xde, 0xbd,
  0x84, 0x24, 0xdb, 0x3c, 0x4b, 0xa4, 0xba, 0xbc, 0x8f, 0x08, 0xb7, 0xbd,
  0x76, 0x6a, 0xf0, 0xbd, 0x28, 0xa2, 0x94, 0xbd, 0xd9, 0x92, 0x94, 0x3d,
  0xef, 0xcf, 0x6d, 0xbe, 0xa3, 0x25, 0x0c, 0x3e, 0x0e, 0x7c, 0x16, 0x3d,
  0x6b, 0x77, 0x3b, 0x3e, 0xf0, 0x71, 0x1e, 0xbe, 0x11, 0x05, 0x3f, 0x3d,
  0xe5, 0x7f, 0x16, 0x3e, 0xf2, 0x32, 0x44, 0xbd, 0xd0, 0xa0, 0x5c, 0x3d,
  0x7b, 0xe1, 0x06, 0xbe, 0xd7, 0xea, 0x70, 0xbe, 0xb7, 0xc6, 0x19, 0xbe,
  0xff, 0xd4, 0x29, 0xbe, 0x04, 0x0d, 0x1e, 0xbe, 0xd1, 0x50, 0xd5, 0xbd,
  0x1d, 0xf1, 0x12, 0x3e, 0xee, 0xe7, 0x5a, 0xbe, 0x1d, 0xc8, 0x59, 0xbe,
  0xca, 0xa3, 0x95, 0xbe, 0x34, 0xf3, 0x45, 0x3e, 0x88, 0x61, 0x1c, 0xbe,
  0x0c, 0xc3, 0x2a, 0xbe, 0xa7, 0x1f, 0xee, 0x3c, 0x79, 0xb6, 0xda, 0xbd,
  0x7c, 0x82, 0x33, 0xbc, 0xb5, 0x12, 0x81, 0xbe, 0x0c, 0xe8, 0x80, 0xbe,
  0xf2, 0xc9, 0xf6, 0x3d, 0x1d, 0x8d, 0x5c, 0xbc, 0x81, 0xdd, 0xdd, 0xbd,
  0x37, 0x06, 0x59, 0xbe, 0xbb, 0xc4, 0x82, 0xbe, 0x52, 0x7b, 0x82, 0xbd,
  0x6c, 0x89, 0xa4, 0x3d, 0xef, 0x24, 0x85, 0xbd, 0xa0, 0x8e, 0x45, 0x3e,
  0xb7, 0x2e, 0x02, 0x3e, 0x2a, 0x39, 0x53, 0xbc, 0x71, 0x50, 0xa0, 0x3d,
  0xee, 0xf2, 0x3e, 0xbe, 0x4d, 0x4a, 0x59, 0xbd, 0x6c, 0xa3, 0x82, 0x3c,
  0xa6, 0x54, 0x43, 0xbe, 0x80, 0xea, 0x3d, 0x3d, 0x9e, 0xc1, 0x68, 0x3d,
  0xea, 0x9f, 0x5f, 0xbd, 0x53, 0xfe, 0x83, 0x3c, 0xae, 0x0c, 0xca, 0x3c,
  0x7c, 0x67, 0x1c, 0x3e, 0x46, 0x5a, 0xe0, 0xbd, 0x1d, 0x24, 0x48, 0xbe,
  0x06, 0xce, 0x26, 0xbe, 0x74, 0x79, 0x1f, 0xbe, 0x2e, 0x07, 0x50, 0xbe,
  0x5d, 0x35, 0x39, 0xbe, 0x22, 0x2b, 0x7b, 0xbd, 0x1c, 0x11, 0x79, 0x3c,
  0xb4, 0x5f, 0xce, 0xbd, 0x9b, 0x52, 0x96, 0xbd, 0xc0, 0xcd, 0x48, 0xbd,
  0xeb, 0x9f, 0x83, 0xbc, 0x51, 0xc8, 0xa8, 0xbd, 0x08, 0x91, 0x46, 0xbd,
  0xbc, 0xdc, 0x6b, 0xbe, 0x52, 0xbf, 0x25, 0xbe, 0xb1, 0xcf, 0x29, 0x3d,
  0xe2, 0x5d, 0x94, 0xbe, 0xe4, 0xd6, 0x1f, 0x3e, 0x08, 0xbf, 0x01, 0x3e,
  0xb2, 0xce, 0x77, 0xbe, 0x3d, 0xec, 0x13, 0xbe, 0x09, 0x98, 0xe0, 0xbd,
  0x1a, 0xb1, 0xb9, 0x3d, 0x47, 0x74, 0xf0, 0xba, 0x64, 0xba, 0xd1, 0x3b,
  0xcc, 0x44, 0xda, 0xbd, 0x68, 0xe5, 0x05, 0x3d, 0xa8, 0x8b, 0x94, 0x3b,
  0x45, 0xe0, 0x99, 0xbe, 0x74, 0x8b, 0x1e, 0xbe, 0xb5, 0xa2, 0x20, 0xbe,
  0xf3, 0x93, 0x45, 0xbe, 0x52, 0xac, 0xb1, 0xbc, 0x15, 0xde, 0x2a, 0x3e,
  0xd4, 0x86, 0xf8, 0x3e, 0x05, 0xe2, 0x1d, 0x3d, 0xf5, 0x5e, 0xb5, 0xbe,
  0xce, 0x76, 0x7b, 0x3d, 0x01, 0x9e, 0x66, 0xbb, 0xca, 0x19, 0xad, 0xbd,
  0xb6, 0x0d, 0xad, 0x3d, 0x82, 0xd6, 0xa8, 0xbd, 0xc3, 0x74, 0x92, 0xbc,
  0x96, 0x87, 0x5c, 0xbe, 0x5e, 0x7c, 0x4a, 0xbd, 0x54, 0x51, 0x94, 0x3d,
  0x57, 0x74, 0xd6, 0xbe, 0xd9, 0x4c, 0xe9, 0xbd, 0x08, 0xd4, 0xa5, 0x3c,
  0x41, 0x37, 0x98, 0x3e, 0x4a, 0xe8, 0x03, 0x3f, 0x10, 0x93, 0x16, 0xbe,
  0xda, 0x2c, 0x91, 0x3e, 0x59, 0x8a, 0x5e, 0x3d, 0xf6, 0x6c, 0x0f, 0x3e,
  0xe6, 0x35, 0x82, 0xbe, 0xc3, 0x08, 0x24, 0x3d, 0x14, 0x37, 0xbb, 0xbc,
  0x64, 0xf7, 0x24, 0xbe, 0x99, 0x4a, 0x2d, 0xbe, 0x15, 0x56, 0xc2, 0x3b,
  0xf6, 0xbb, 0x20, 0xbe, 0xc0, 0x3c, 0xff, 0x3c, 0xff, 0x95, 0xff, 0xbd,
  0x69, 0x38, 0x05, 0xbe, 0x17, 0xc4, 0x22, 0x3e, 0x10, 0xa5, 0xdc, 0x3e,
  0x5a, 0x36, 0x84, 0xbd, 0xf3, 0xb2, 0x9f, 0x3b, 0x36, 0x87, 0x26, 0x3d,
  0x4e, 0x28, 0x07, 0xbd, 0x95, 0x74, 0x76, 0xbd, 0xb0, 0x9f, 0x39, 0xbe,
  0x64, 0x6c, 0x00, 0xbc, 0x02, 0x26, 0xf9, 0xbd, 0x26, 0x3d, 0x8e, 0xbe,
  0x1e, 0x74, 0x3c, 0xbd, 0xfa, 0xd9, 0x91, 0x3e, 0xf6, 0x02, 0x04, 0xbe,
  0x58, 0xb5, 0xe1, 0xbd, 0x21, 0xaf, 0x9c, 0x3d, 0x96, 0xa7, 0x8c, 0x3d,
  0xb7, 0x5d, 0x45, 0x3e, 0x1a, 0xc3, 0x46, 0xbc, 0xf8, 0x96, 0x62, 0xbe,
  0x62, 0xc1, 0x05, 0xbe, 0x41, 0xbe, 0x1e, 0x3e, 0xbd, 0x7e, 0x4a, 0xbe,
  0xf5, 0x31, 0xaa, 0x3b, 0x3e, 0x2a, 0x9e, 0xbd, 0x04, 0x52, 0x2d, 0x3e,
  0x42, 0x2f, 0x1d, 0x3e, 0x43, 0xc5, 0x28, 0xbe, 0xef, 0xcf, 0x59, 0x3e,
  0x7d, 0xd6, 0x2d, 0xbe, 0x01, 0x53, 0x71, 0x3e, 0xb4, 0x08, 0xbc, 0xbd,
  0x35, 0x04, 0x55, 0x3c, 0x51, 0x13, 0x06, 0x3f, 0x2d, 0xe0, 0x3b, 0xbe,
  0xf5, 0x61, 0x2f, 0x3e, 0xf6, 0xe8, 0x08, 0x3e, 0xba, 0x38, 0x0d, 0xbc,
  0x5c, 0xfe, 0x80, 0xbe, 0x41, 0x46, 0x8c, 0xbe, 0x1a, 0x52, 0xc8, 0xbd,
  0x1d, 0x40, 0x02, 0x3e, 0xa7, 0x15, 0xaf, 0xbd, 0x2f, 0xfa, 0x15, 0xbe,
  0x1e, 0xec, 0xa4, 0xbb, 0xd9, 0x3a, 0x0d, 0xbd, 0xcf, 0xc0, 0x69, 0xbd,
  0x82, 0x23, 0x2c, 0xbe, 0x05, 0x76, 0xa3, 0xbd, 0x25, 0xcf, 0x8e, 0x3e,
  0x5e, 0xf7, 0x5e, 0xbd, 0x9d, 0x8a, 0xa9, 0x3c, 0xca, 0x72, 0x31, 0x3d,
  0x48, 0x74, 0xf9, 0xbd, 0xd2, 0x40, 0xc6, 0xbd, 0x6b, 0x8c, 0x76, 0xbe,
  0xc8, 0x87, 0x66, 0xbd, 0x9a, 0x5d, 0x93, 0xbd, 0xb0, 0xe5, 0xc1, 0x3d,
  0x0b, 0xa6, 0x88, 0xbc, 0xae, 0xe7, 0x9d, 0x3c, 0x0f, 0x19, 0x39, 0xbd,
  0x5d, 0x59, 0x63, 0x3e, 0x11, 0xfe, 0x97, 0xbe, 0xd0, 0x1e, 0x94, 0x3e,
  0x75, 0x62, 0x9d, 0x3e, 0xfc, 0xf5, 0xa6, 0xbb, 0x11, 0xf9, 0x4f, 0x3d,
  0x00, 0xe4, 0xee, 0xbd, 0x6d, 0x9c, 0xa6, 0x3c, 0xcf, 0x60, 0xc7, 0xbe,
  0x19, 0x57, 0x5e, 0xbe, 0xfa, 0x54, 0xa1, 0xbe, 0x5f, 0x4c, 0x2e, 0xbe,
  0xa2, 0x92, 0x35, 0x3b, 0xf8, 0xca, 0xcb, 0xbd, 0xe4, 0xc1, 0xd3, 0x3d,
  0x04, 0x63, 0x12, 0xbe, 0x73, 0x4d, 0xa2, 0xbe, 0x5b, 0x59, 0xfe, 0x3e,
  0x5b, 0x61, 0xda, 0x3d, 0x1b, 0xf8, 0x4c, 0x3d, 0xad, 0x9e, 0xa3, 0xbd,
  0xb4, 0x6a, 0xa0, 0x3d, 0x3b, 0x01, 0xc3, 0xbd, 0xdc, 0xc8, 0xfe, 0xbc,
  0xf5, 0x28, 0x4b, 0x3d, 0xcf, 0xe0, 0xa4, 0x3c, 0x29, 0x2e, 0x8d, 0xbd,
  0x9f, 0x7b, 0xb0, 0x3e, 0x11, 0x0f, 0xd0, 0xbd, 0x17, 0x60, 0x8f, 0xbd,
  0x92, 0xbe, 0xae, 0xbe, 0x97, 0xbb, 0x21, 0x3c, 0xc4, 0xe4, 0x42, 0x3e,
  0x36, 0x52, 0xa3, 0x3e, 0x7c, 0x6b, 0xfb, 0xbd, 0xe4, 0xbd, 0xfd, 0xbd,
  0x03, 0xf3, 0x9e, 0xbd, 0x18, 0xcc, 0x80, 0xbe, 0xf2, 0x0c, 0x2b, 0x3e,
  0x2d, 0x83, 0x11, 0xbe, 0xeb, 0x3c, 0x5a, 0xbd, 0xf3, 0x44, 0xc1, 0xbc,
  0xe6, 0xc0, 0x32, 0xbe, 0x6d, 0x1d, 0x9b, 0x3e, 0x98, 0xa5, 0xbb, 0xbd,
  0x97, 0x3a, 0x5e, 0x3d, 0xbc, 0x48, 0x1c, 0xbf, 0x33, 0x42, 0x52, 0xbe,
  0x4b, 0xff, 0x74, 0x3d, 0x55, 0xec, 0x96, 0x3e, 0x9a, 0xd6, 0xb7, 0x3d,
  0xa7, 0xfc, 0x84, 0xbd, 0x33, 0x66, 0x97, 0x3c, 0x63, 0x22, 0x90, 0xbe,
  0x81, 0x4c, 0x38, 0x3e, 0x2e, 0x50, 0x51, 0xbe, 0x5e, 0xda, 0x12, 0xbe,
  0x45, 0x29, 0xa2, 0xbd, 0xbd, 0x36, 0xa0, 0x3e, 0x52, 0x84, 0xbc, 0x3e,
  0xdc, 0x65, 0x98, 0x3c, 0x4c, 0xe8, 0x57, 0xbc, 0x29, 0xa3, 0x97, 0xbe,
  0x1a, 0x83, 0x85, 0xbe, 0x35, 0x2b, 0xf3, 0xbd, 0x53, 0x30, 0x2e, 0x3e,
  0x13, 0xd0, 0x8f, 0x3b, 0x61, 0x9c, 0x3d, 0x3d, 0x8f, 0x97, 0x6c, 0xbb,
  0xf4, 0xeb, 0x1b, 0xbe, 0xf4, 0x1b, 0x97, 0x3d, 0xfc, 0x77, 0x57, 0xbe,
  0x02, 0xab, 0x58, 0xbe, 0x31, 0xfa, 0x87, 0xbd, 0x56, 0xc5, 0x42, 0x3e,
  0x3c, 0x9f, 0x99, 0x3e, 0x99, 0x6b, 0x2f, 0xbe, 0xa6, 0x73, 0xce, 0xbb,
  0x86, 0x5a, 0x85, 0xbe, 0x5a, 0xf4, 0x6a, 0xbe, 0xd0, 0x01, 0x69, 0x37,
  0xa3, 0x8d, 0x69, 0x3e, 0xc9, 0xea, 0xcb, 0x3d, 0xdd, 0xa3, 0x59, 0x3c,
  0xf6, 0x84, 0xff, 0x3c, 0xbc, 0xb3, 0x22, 0xbe, 0x40, 0xfe, 0xf7, 0xbd,
  0xaa, 0x33, 0xb9, 0xba, 0xeb, 0xe6, 0x23, 0xbe, 0xe2, 0x57, 0xa6, 0xbd,
  0x38, 0xa4, 0x46, 0x3e, 0x0e, 0x7d, 0xff, 0x3e, 0x07, 0x4f, 0x55, 0x3e,
  0x52, 0x13, 0x28, 0x3c, 0x65, 0x3e, 0x5a, 0xbe, 0x78, 0x34, 0xa2, 0xbd,
  0x80, 0xda, 0xf7, 0xbd, 0x2d, 0x01, 0x27, 0x3e, 0x6b, 0xd8, 0x57, 0x3e,
  0x0c, 0x59, 0x10, 0x3d, 0x0a, 0x0b, 0x41, 0xbd, 0x57, 0x90, 0x7d, 0x3b,
  0xc8, 0x6b, 0x43, 0xbe, 0xb7, 0xd9, 0xc0, 0xbe, 0x49, 0x7f, 0x8f, 0xbd,
  0x15, 0x15, 0x43, 0xbd, 0x62, 0xf3, 0x26, 0x3e, 0x85, 0xd8, 0xd1, 0x3e,
  0xd6, 0xc6, 0xbe, 0x3e, 0xce, 0x12, 0x20, 0xbd, 0xb0, 0xb6, 0x9a, 0xbe,
  0x01, 0xca, 0x10, 0x3d, 0x3e, 0x57, 0xc6, 0xbc, 0xb9, 0xee, 0x93, 0xbb,
  0xb9, 0x16, 0x28, 0xbe, 0xde, 0x7d, 0xaa, 0x3d, 0x2e, 0x23, 0xac, 0xbd,
  0x2c, 0x7e, 0x49, 0x3d, 0x5b, 0x7d, 0x94, 0xbc, 0x06, 0xb4, 0x8b, 0xbe,
  0x94, 0xdb, 0xd3, 0xbb, 0x33, 0xd6, 0x08, 0x3a, 0x43, 0x4b, 0x96, 0x3e,
  0xa5, 0xd0, 0x2f, 0x3d, 0xfe, 0x58, 0xec, 0xbc, 0x1d, 0x87, 0xba, 0xbd,
  0x36, 0x61, 0xdc, 0xbd, 0xdb, 0x10, 0x99, 0x3d, 0x5c, 0xb5, 0x74, 0x3d,
  0xd9, 0x8d, 0x61, 0x3e, 0x86, 0x8a, 0x87, 0xbe, 0xa6, 0xbe, 0xb7, 0xbe,
  0xc5, 0x45, 0x9c, 0xbd, 0xb4, 0xf2, 0xf5, 0x3c, 0x8e, 0x67, 0xb1, 0xbe,
  0x2d, 0x7a, 0x28, 0xbe, 0x38, 0xbd, 0x15, 0xbb, 0x90, 0x9f, 0x27, 0xbd,
  0x0d, 0x97, 0x61, 0x3e, 0x6b, 0x41, 0xdd, 0x3e, 0xe9, 0x4c, 0x81, 0x3d,
  0x1b, 0xc2, 0x88, 0xbc, 0x23, 0x19, 0x62, 0x3d, 0x04, 0x7d, 0x4a, 0x3d,
  0x28, 0x45, 0x51, 0x3e, 0xdc, 0x95, 0x39, 0x3e, 0x30, 0xb4, 0x14, 0xbe,
  0x2c, 0xe6, 0xec, 0xbe, 0x45, 0x8f, 0xf6, 0xbc, 0x81, 0x9f, 0xdc, 0xbd,
  0xef, 0xe5, 0x9e, 0xbd, 0xf2, 0x91, 0x1c, 0x3d, 0x98, 0xe7, 0xc8, 0x3c,
  0x64, 0x50, 0x86, 0x3c, 0xa5, 0x69, 0xf5, 0x3d, 0x9b, 0x33, 0x53, 0x3e,
  0x36, 0xba, 0x6e, 0x3d, 0x51, 0x41, 0x18, 0xbc, 0xf8, 0xbb, 0xc4, 0x3c,
  0xc7, 0x56, 0xe7, 0xbd, 0x85, 0x83, 0xd0, 0xbb, 0x68, 0xde, 0x03, 0x3e,
  0xa4, 0x5b, 0xb9, 0xbe, 0xc1, 0x76, 0xa4, 0xbe, 0x57, 0xc5, 0x09, 0xbc,
  0xce, 0x92, 0x0c, 0xbe, 0x36, 0x8e, 0x81, 0xbc, 0x30, 0x77, 0x34, 0x3d,
  0x9c, 0x02, 0xae, 0x3a, 0x99, 0x87, 0x2b, 0x3d, 0x36, 0x99, 0xb9, 0x3d,
  0xe2, 0x57, 0x5d, 0x3e, 0x95, 0x82, 0x9e, 0xbd, 0x7e, 0xef, 0x65, 0xbb,
  0x26, 0x10, 0x5a, 0x3d, 0x63, 0xac, 0xc5, 0xbd, 0x3a, 0x3a, 0x7b, 0xbd,
  0xc0, 0x76, 0xb2, 0x3c, 0x40, 0xff, 0xbe, 0xbd, 0x9e, 0x8c, 0xc6, 0xbe,
  0x3b, 0xd8, 0xa1, 0x3a, 0xee, 0xcd, 0x5c, 0xbd, 0x0f, 0x19, 0x31, 0xbd,
  0x9e, 0x24, 0x0b, 0xbd, 0x60, 0x93, 0x5c, 0xbc, 0xc7, 0x81, 0x9f, 0x3b,
  0xa1, 0xe3, 0x23, 0x3e, 0xa8, 0xde, 0x95, 0x3e, 0x37, 0x79, 0x19, 0x3e,
  0xff, 0x0e, 0x6d, 0xbc, 0x68, 0x91, 0x0a, 0xbd, 0xb3, 0x6d, 0x5c, 0xbd,
  0xb2, 0xc9, 0x06, 0x3d, 0x9e, 0x9d, 0x96, 0x3d, 0x3a, 0xc2, 0x8b, 0xbd,
  0x1b, 0x77, 0xb0, 0xbe, 0x0c, 0x40, 0x3d, 0xbc, 0x90, 0xf5, 0x94, 0xbd,
  0xca, 0x22, 0x19, 0xbd, 0x71, 0x7f, 0xfe, 0xbc, 0x15, 0x9c, 0x4d, 0xbc,
  0x37, 0x62, 0x3b, 0x3d, 0x6f, 0x7f, 0x29, 0x3d, 0x64, 0x89, 0xc4, 0x3e,
  0xa5, 0x64, 0xcf, 0xbc, 0x2e, 0x48, 0xb3, 0xbc, 0x7b, 0xd0, 0x1e, 0xbc,
  0xe8, 0x73, 0x8e, 0xbd, 0x09, 0x24, 0x0d, 0xbd, 0x99, 0x96, 0xfb, 0x3d,
  0xf4, 0x10, 0x00, 0xbe, 0xd8, 0x12, 0x67, 0xbe, 0xf4, 0x06, 0x28, 0xb9,
  0xe9, 0x10, 0x1d, 0xbd, 0x98, 0x1e, 0xe2, 0x3b, 0xa1, 0xae, 0xc4, 0x3c,
  0x2c, 0x1d, 0x4a, 0xbd, 0xf0, 0x65, 0xe0, 0xbb, 0x55, 0x63, 0xe9, 0x3d,
  0xd0, 0x5f, 0x7a, 0x3e, 0x0f, 0x4d, 0x1f, 0x3e, 0x0e, 0x2c, 0x93, 0x3c,
  0x1c, 0x6b, 0x4c, 0xbd, 0x61, 0xab, 0x1b, 0xbe, 0xa5, 0x59, 0xd2, 0x3c,
  0xf4, 0x76, 0x9e, 0xba, 0x92, 0x8b, 0xf8, 0x3c, 0xb9, 0x7c, 0xf3, 0xbd,
  0xdf, 0x40, 0x32, 0x3d, 0xc2, 0x48, 0x8b, 0xbd, 0x11, 0x1c, 0xf5, 0xbd,
  0xf9, 0x7e, 0x3e, 0xbd, 0xcc, 0x8c, 0x8d, 0xbc, 0x99, 0x19, 0x92, 0xbd,
  0x5c, 0x72, 0xa0, 0x3d, 0x66, 0xfd, 0x57, 0x3d, 0xa2, 0x24, 0xaa, 0x3d,
  0x9b, 0xea, 0xf1, 0x3c, 0x78, 0x6e, 0x95, 0xbc, 0x40, 0x8a, 0x3c, 0xbe,
  0x99, 0xe5, 0x00, 0xbe, 0xdd, 0xe5, 0xfc, 0xbe, 0x98, 0xca, 0xfb, 0x3e,
  0x6a, 0x51, 0xe2, 0x3e, 0xe8, 0x7f, 0x0a, 0x3e, 0xed, 0x75, 0xda, 0x3b,
  0xe4, 0xab, 0xdd, 0x3e, 0x4e, 0x31, 0xb6, 0x3e, 0x02, 0x1d, 0x24, 0x3e,
  0xa0, 0xf9, 0x84, 0x3e, 0x2c, 0x58, 0x05, 0xbf, 0xd1, 0x08, 0xcc, 0xbe,
  0xc8, 0xba, 0x70, 0xbd, 0x13, 0x28, 0xb1, 0x3b, 0xea, 0x11, 0x62, 0xbe,
  0x22, 0x7f, 0x64, 0x3c, 0xb9, 0xa2, 0x03, 0xbe, 0x50, 0x2f, 0xa2, 0xbe,
  0x76, 0x9c, 0x2a, 0x3f, 0x2a, 0xd3, 0xcb, 0x3e, 0xe0, 0x0b, 0x67, 0x3d,
  0x66, 0xbe, 0x6e, 0x3d, 0x74, 0xe3, 0xe7, 0x3d, 0x42, 0xfb, 0xcc, 0xbd,
  0xc6, 0x64, 0xb6, 0x39, 0x39, 0x39, 0xd7, 0x3b, 0x93, 0xcf, 0x7d, 0xbe,
  0x37, 0x9e, 0xe0, 0xbe, 0x20, 0x15, 0xbf, 0xbe, 0xaf, 0xec, 0xbd, 0xbc,
  0xa0, 0x5b, 0x45, 0x3e, 0x4e, 0xe5, 0x92, 0xbd, 0x11, 0xb4, 0xa4, 0xbd,
  0xa1, 0xb0, 0x11, 0xbd, 0x28, 0x0b, 0xe1, 0x3e, 0x18, 0x59, 0xb0, 0x3e,
  0xa3, 0xb4, 0x17, 0x3d, 0x3d, 0x7e, 0x4b, 0x3e, 0xac, 0x6a, 0x01, 0x3e,
  0x01, 0xb0, 0x09, 0xbe, 0x7f, 0xb3, 0x7d, 0xbd, 0x28, 0x1c, 0x5b, 0xbd,
  0xb6, 0x31, 0x23, 0xbe, 0xe1, 0x58, 0x90, 0xbe, 0xf8, 0x5c, 0x8d, 0x3d,
  0xca, 0x4d, 0xc4, 0x3a, 0xe6, 0x53, 0x9b, 0x3d, 0x71, 0x71, 0x35, 0xbe,
  0xd4, 0xb1, 0x6a, 0x3c, 0x68, 0x0e, 0xed, 0xbd, 0x75, 0xb2, 0xce, 0x3e,
  0xa2, 0x84, 0xb6, 0x3e, 0x00, 0xde, 0xb1, 0x3c, 0xea, 0x34, 0x60, 0x3c,
  0x15, 0xf1, 0x95, 0x3d, 0x04, 0xf8, 0x37, 0xbe, 0xdb, 0xd5, 0x0b, 0xbd,
  0xb0, 0x37, 0xf4, 0xbc, 0x2e, 0x6a, 0x93, 0xbe, 0x26, 0x23, 0x79, 0xbd,
  0x16, 0xcd, 0x92, 0x3e, 0x2a, 0x89, 0xb3, 0xbc, 0x2d, 0x8d, 0x3d, 0x3d,
  0xf3, 0xb0, 0xc4, 0xbd, 0x9d, 0x50, 0x9a, 0xbd, 0x9e, 0xcc, 0x6e, 0xbd,
  0xfb, 0x0b, 0x57, 0x3f, 0x1c, 0x18, 0x9a, 0x3e, 0xec, 0x7c, 0x19, 0x3c,
  0xff, 0x3c, 0x1b, 0x3d, 0xf1, 0xca, 0x04, 0xbc, 0xae, 0x45, 0x3c, 0xbd,
  0x58, 0x15, 0x83, 0xbd, 0xc6, 0x5d, 0xe8, 0xbc, 0x7f, 0xda, 0xd5, 0xbe,
  0xcf, 0xe4, 0x4b, 0xbe, 0xf8, 0x16, 0x97, 0x3d, 0xc0, 0x1f, 0x55, 0x37,
  0x95, 0x98, 0xc0, 0xbd, 0x66, 0xd2, 0xcd, 0xbd, 0x8f, 0x8b, 0xa0, 0xbd,
  0x00, 0x3b, 0x8a, 0xbe, 0x28, 0xab, 0xb8, 0x3e, 0x22, 0xb2, 0xc5, 0x3e,
  0x24, 0xea, 0x6a, 0x3d, 0x5b, 0x8e, 0x01, 0xbd, 0x79, 0x44, 0x0b, 0x3e,
  0x76, 0x18, 0xb6, 0xbc, 0x54, 0xa3, 0x3f, 0xbc, 0x10, 0x68, 0x4e, 0xbd,
  0x34, 0xc8, 0x55, 0xbf, 0xf4, 0x31, 0x1b, 0xbf, 0x9a, 0xaf, 0x59, 0xbd,
  0xda, 0x51, 0xd5, 0xbc, 0x50, 0x47, 0xc5, 0xbd, 0x09, 0x83, 0x37, 0xbb,
  0x08, 0x78, 0x50, 0xbd, 0x99, 0x31, 0x97, 0xbd, 0x94, 0x50, 0x12, 0x3f,
  0xeb, 0xbd, 0x84, 0x3e, 0xa6, 0x08, 0xa7, 0x3d, 0xbc, 0x8a, 0x0b, 0x3e,
  0xdb, 0x66, 0x38, 0xbd, 0x9a, 0x97, 0x45, 0x3e, 0xeb, 0x70, 0xbe, 0x3c,
  0x9f, 0xf3, 0x43, 0x3d, 0x7c, 0x42, 0x2a, 0xbf, 0xd3, 0x07, 0x2a, 0xbe,
  0x23, 0x3a, 0x1b, 0xbf, 0x4a, 0xdb, 0x99, 0xbc, 0x10, 0x5c, 0xaf, 0xbd,
  0x6a, 0xbb, 0xaf, 0xbe, 0x20, 0xa3, 0xa0, 0xbe, 0xa4, 0x17, 0x7f, 0xbe,
  0xd5, 0xbf, 0x48, 0xbe, 0x41, 0x87, 0xeb, 0xbe, 0xf5, 0x48, 0x97, 0xbd,
  0x5a, 0x07, 0xe8, 0xbd, 0x84, 0xc2, 0x7f, 0xbe, 0x9e, 0xc5, 0x9d, 0xbe,
  0xa4, 0x84, 0x3a, 0xbe, 0xec, 0x38, 0x70, 0xbe, 0xde, 0x02, 0x54, 0x3e,
  0xa2, 0x0c, 0x90, 0xbe, 0xda, 0xb5, 0x00, 0xbd, 0x1d, 0xe6, 0xed, 0xbd,
  0x42, 0xdf, 0x86, 0x3e, 0x34, 0x76, 0x8d, 0xbd, 0xdc, 0xcd, 0x45, 0xbe,
  0x0f, 0x7d, 0x4f, 0xbe, 0x42, 0x02, 0x5d, 0xbe, 0xa1, 0xd4, 0xb0, 0xbe,
  0xea, 0x5d, 0xd4, 0x3c, 0xf8, 0x7d, 0x43, 0x3d, 0xaa, 0x0f, 0x28, 0xbe,
  0x8b, 0xa7, 0xf1, 0x3d, 0xbf, 0x86, 0x8b, 0xbd, 0x48, 0xc9, 0x85, 0xbd,
  0xd8, 0xe5, 0x4f, 0x3d, 0x70, 0x64, 0xa7, 0xbd, 0x1a, 0x00, 0x97, 0x3e,
  0x30, 0xeb, 0xb8, 0x3b, 0x23, 0x16, 0xb6, 0x3e, 0x6b, 0x3e, 0xc2, 0x3c,
  0x1b, 0x3b, 0x53, 0xbd, 0x93, 0x74, 0x1d, 0xbe, 0xfa, 0x2d, 0xd3, 0xbd,
  0xe4, 0xaa, 0xef, 0xbe, 0x58, 0x4e, 0xe5, 0x3c, 0xa7, 0x52, 0x97, 0x3b,
  0x90, 0x25, 0xd4, 0xbd, 0x09, 0xf0, 0x42, 0xbd, 0x67, 0x2a, 0x4f, 0x3c,
  0x7e, 0x2b, 0xb4, 0xbc, 0x76, 0xd3, 0x87, 0x3c, 0x02, 0x70, 0x04, 0xbe,
  0xdb, 0x99, 0x79, 0x3e, 0xa9, 0x3d, 0x02, 0x3d, 0x2b, 0xa6, 0x77, 0x3e,
  0x00, 0xe1, 0x7e, 0x3c, 0xd6, 0x82, 0xdf, 0x3c, 0x87, 0x2a, 0x29, 0xbe,
  0xef, 0x10, 0xed, 0xbd, 0xb9, 0xe0, 0x21, 0xbf, 0x1a, 0xb1, 0x16, 0xbd,
  0xda, 0x35, 0x47, 0x3d, 0x1e, 0xc0, 0xaf, 0xbd, 0xfc, 0x76, 0x38, 0xbd,
  0x45, 0x17, 0xec, 0x3c, 0x65, 0x13, 0x27, 0x3c, 0xc3, 0xbe, 0x90, 0x3d,
  0x5f, 0x24, 0x5c, 0xbd, 0x72, 0x38, 0x35, 0xbd, 0x8b, 0x04, 0xf9, 0x3b,
  0xc2, 0x2b, 0xfe, 0x3c, 0x86, 0x03, 0xb3, 0xbc, 0xc2, 0x13, 0xb9, 0xbc,
  0x6f, 0x88, 0xc6, 0xbe, 0xb4, 0x2c, 0x66, 0xbe, 0xd8, 0x9d, 0xed, 0xbe,
  0xe5, 0xdd, 0x7e, 0xbd, 0x33, 0xf3, 0x7b, 0x3d, 0x1c, 0x20, 0x0d, 0xbe,
  0xeb, 0x9d, 0xb6, 0xbd, 0x75, 0x0b, 0xe6, 0x3c, 0x18, 0x74, 0x7e, 0x3c,
  0xbe, 0x60, 0x64, 0x3e, 0x6c, 0xc5, 0xeb, 0xbe, 0x9b, 0x90, 0x81, 0xbd,
  0xca, 0xd9, 0xc5, 0xbd, 0x1e, 0xd3, 0x1d, 0x3e, 0x72, 0x67, 0xba, 0xbc,
  0x2d, 0xe9, 0xae, 0xbd, 0x8d, 0x2d, 0x30, 0xbe, 0x05, 0x83, 0xa6, 0xbd,
  0xcd, 0xb4, 0xf6, 0xbe, 0x7a, 0x9c, 0xa0, 0xbd, 0x60, 0x26, 0xf2, 0x3d,
  0x88, 0xb9, 0xf1, 0xbb, 0x74, 0x42, 0x52, 0x3e, 0xed, 0x82, 0x19, 0xbc,
  0xc5, 0xcd, 0x4c, 0x3d, 0x98, 0x32, 0xfc, 0x3d, 0x7b, 0x3e, 0x0e, 0xbe,
  0xd6, 0x65, 0xab, 0xbd, 0xb3, 0x2c, 0xc4, 0xbc, 0x05, 0x2e, 0x6d, 0x3d,
  0x58, 0x79, 0xa2, 0x3d, 0x51, 0x7c, 0x30, 0xbb, 0x8f, 0x89, 0x9b, 0x3b,
  0xcd, 0xa9, 0x5d, 0x3d, 0x9f, 0x9e, 0x9e, 0xbe, 0x9b, 0x7d, 0x5d, 0x3d,
  0x02, 0x64, 0xee, 0x3d, 0xbf, 0x6d, 0x98, 0xbc, 0x75, 0xd0, 0xa7, 0x3d,
  0xe7, 0x6f, 0x66, 0x3d, 0xbe, 0x8e, 0x92, 0xbb, 0x1b, 0x26, 0xa9, 0x3e,
  0x4b, 0xe7, 0x85, 0xbd, 0x94, 0xe4, 0x0c, 0x3e, 0xba, 0x5e, 0x23, 0x3d,
  0x35, 0x6b, 0x53, 0x3e, 0x7e, 0x58, 0xd1, 0x3d, 0x01, 0xc3, 0x9a, 0x3d,
  0x04, 0x60, 0xda, 0xbe, 0x2b, 0x93, 0xf3, 0xbc, 0x10, 0x6f, 0x4d, 0xbc,
  0xaa, 0xad, 0xa2, 0xbd, 0x6a, 0x6c, 0xea, 0x3b, 0xc0, 0x52, 0xec, 0x3b,
  0xf0, 0x71, 0x9e, 0xbd, 0x1d, 0xfb, 0xda, 0x3d, 0xd7, 0xd0, 0x19, 0x3e,
  0x65, 0xab, 0x1b, 0xbd, 0x5c, 0x81, 0x9a, 0xbe, 0xd2, 0xbe, 0xb8, 0xbd,
  0x3b, 0x2b, 0xa5, 0xbd, 0x3d, 0x88, 0x19, 0xbe, 0x4b, 0xf3, 0xe5, 0x3c,
  0x6f, 0x66, 0x9a, 0xbe, 0xa9, 0x48, 0x9a, 0xbe, 0x63, 0x90, 0x30, 0xbd,
  0x14, 0x61, 0x52, 0xbe, 0x3c, 0xe6, 0xa2, 0xbd, 0x84, 0x13, 0xdf, 0xbb,
  0x1e, 0x4a, 0xfd, 0xbd, 0xa1, 0xf2, 0x75, 0x3d, 0x10, 0x46, 0xf1, 0x3d,
  0xfa, 0x82, 0x87, 0x3d, 0x49, 0x3b, 0xd7, 0xbc, 0x29, 0x60, 0x56, 0xbe,
  0x76, 0x59, 0xcf, 0xbd, 0x4d, 0xa3, 0x30, 0xbe, 0x68, 0x02, 0x07, 0xbf,
  0x51, 0xb7, 0x06, 0x3e, 0x3b, 0x41, 0x7c, 0xbc, 0x4e, 0xbe, 0x3d, 0xbd,
  0x2b, 0x06, 0x8b, 0x3b, 0xfd, 0x28, 0xd0, 0x3d, 0xa3, 0xf6, 0xe0, 0xbd,
  0x76, 0x67, 0x92, 0x3c, 0xc7, 0x90, 0xa3, 0x3d, 0xd1, 0x10, 0xe7, 0x3d,
  0x00, 0xd0, 0x4e, 0xbd, 0x24, 0xfa, 0x12, 0x3d, 0xea, 0xad, 0xec, 0x3d,
  0xcf, 0x3a, 0x1f, 0x3e, 0x01, 0xab, 0x56, 0xbd, 0xe0, 0x13, 0xcb, 0xbd,
  0x4e, 0x91, 0x00, 0xbf, 0x9f, 0xb3, 0xc5, 0x3d, 0xa7, 0x17, 0x4b, 0x3e,
  0x79, 0x72, 0xc6, 0x3e, 0xda, 0x05, 0x07, 0x3e, 0xa3, 0x5d, 0x24, 0xbe,
  0xbd, 0x69, 0x66, 0xbd, 0x7e, 0xc8, 0x90, 0xbd, 0x42, 0x42, 0xcf, 0x3d,
  0xa3, 0x85, 0xba, 0x3d, 0xa2, 0x7d, 0x9e, 0x3b, 0xe5, 0xde, 0x48, 0x3d,
  0x14, 0x3f, 0xa7, 0xbe, 0x90, 0x40, 0xa3, 0x3e, 0xbb, 0x58, 0x66, 0xbd,
  0xca, 0x73, 0x59, 0x3c, 0x64, 0x20, 0x0b, 0xbf, 0xed, 0x7d, 0x0f, 0xbe,
  0xc2, 0x84, 0x4f, 0x3e, 0xb5, 0x1e, 0xef, 0x3e, 0xf1, 0x78, 0x37, 0xbc,
  0x68, 0x6c, 0x5e, 0x3d, 0x5a, 0xc1, 0x93, 0xbd, 0xdb, 0x5c, 0x1c, 0xbe,
  0xf6, 0x1f, 0x86, 0xbd, 0x43, 0xbc, 0x98, 0x3d, 0xd9, 0x2e, 0x1d, 0xbd,
  0xe9, 0xca, 0x81, 0x3b, 0xfe, 0x87, 0x9d, 0x3c, 0x8d, 0x05, 0x32, 0x3f,
  0xd0, 0xfa, 0x3d, 0x3e, 0xde, 0x7f, 0x19, 0x3d, 0xce, 0x78, 0x9a, 0xbe,
  0x00, 0xc4, 0x78, 0xbe, 0x0b, 0xca, 0xc5, 0x3d, 0xcf, 0xe7, 0xb1, 0x3e,
  0x91, 0x9d, 0x27, 0x3e, 0xec, 0xdb, 0x67, 0xbe, 0xa8, 0xcf, 0xb9, 0xbe,
  0x61, 0x72, 0xef, 0xbd, 0xbc, 0xf2, 0x55, 0xbe, 0x2a, 0xfb, 0xd0, 0xbe,
  0x9c, 0xb9, 0x77, 0xbe, 0x49, 0x91, 0x1c, 0xbe, 0xf6, 0x89, 0x36, 0x3e,
  0xae, 0xb2, 0xd0, 0x3e, 0xbf, 0x05, 0x65, 0x3e, 0xea, 0xf7, 0x6b, 0xbd,
  0xd8, 0x49, 0x71, 0xbe, 0x0e, 0xdb, 0x98, 0xbe, 0x24, 0xd4, 0xc2, 0x3d,
  0x31, 0xe5, 0xbe, 0x3c, 0x8a, 0xa3, 0x98, 0xbe, 0x5d, 0x08, 0x2f, 0xbe,
  0x6e, 0x2e, 0x99, 0xbd, 0x00, 0xa2, 0xc6, 0xbe, 0xc0, 0x61, 0x97, 0xbe,
  0xe7, 0x46, 0xf8, 0xbe, 0x06, 0xa8, 0x45, 0xbe, 0x21, 0x73, 0xb9, 0xbe,
  0x20, 0x3b, 0xbf, 0x3b, 0xa6, 0x5b, 0x75, 0x3e, 0xd9, 0x06, 0x05, 0x3e,
  0x04, 0xd4, 0x51, 0x3d, 0xad, 0xd6, 0x89, 0xbe, 0x85, 0x16, 0x25, 0xbe,
  0xdb, 0xe6, 0x18, 0xbe, 0x44, 0x16, 0x67, 0xbd, 0xa1, 0xd7, 0x9c, 0x3d,
  0x2e, 0xf5, 0x5f, 0x3e, 0x06, 0xb7, 0xac, 0xbe, 0x79, 0x80, 0xd4, 0xbe,
  0xc5, 0xac, 0xf0, 0x3e, 0xd9, 0xb8, 0x71, 0x3d, 0x19, 0x96, 0xab, 0xbe,
  0xdc, 0x6b, 0xba, 0xbe, 0xc7, 0xc5, 0x16, 0x3e, 0xe3, 0x3e, 0x1d, 0x3e,
  0x55, 0x07, 0xa2, 0xbc, 0x26, 0x46, 0x96, 0xbe, 0xef, 0x50, 0x65, 0xbe,
  0xf3, 0xec, 0x00, 0xbe, 0xa8, 0x4b, 0x0f, 0xbe, 0x09, 0xac, 0x86, 0x3d,
  0xfc, 0x01, 0x5f, 0x3d, 0xbe, 0x8d, 0xd5, 0x3d, 0x7a, 0xb7, 0x9a, 0xbe,
  0x37, 0x5b, 0x61, 0x3d, 0x99, 0x84, 0xce, 0x3e, 0x90, 0xa9, 0x1e, 0xbe,
  0x3e, 0x02, 0x80, 0xbe, 0x93, 0x74, 0x98, 0xbe, 0xbc, 0xd4, 0xb0, 0x3e,
  0xdd, 0xfe, 0x5a, 0x3e, 0xa8, 0x55, 0x44, 0x3d, 0x6e, 0x05, 0x5f, 0xbe,
  0x8e, 0x13, 0xaa, 0xbd, 0x24, 0xa1, 0x2f, 0xbe, 0xf0, 0xa4, 0x00, 0xbe,
  0x4b, 0x22, 0x31, 0xbe, 0xd2, 0xcb, 0xb1, 0xbd, 0x6a, 0x81, 0x7a, 0x3d,
  0x01, 0x3b, 0x5c, 0xbe, 0xde, 0x3f, 0xe0, 0xbd, 0x6d, 0x7d, 0x0f, 0x3f,
  0x0e, 0x6a, 0xe1, 0xbc, 0xc7, 0x6f, 0xca, 0xbd, 0xb0, 0x7d, 0x1d, 0xbe,
  0x0d, 0x6b, 0x7b, 0x3e, 0x2b, 0x37, 0x05, 0xbe, 0x45, 0x0b, 0x58, 0xbe,
  0x54, 0x2b, 0xbc, 0xbe, 0xba, 0x48, 0xbb, 0xbd, 0x16, 0xb2, 0x93, 0xbc,
  0xa3, 0x19, 0x21, 0xbe, 0xd0, 0x42, 0x4a, 0xbe, 0x11, 0x19, 0xc8, 0x3c,
  0xdc, 0x18, 0x51, 0x3e, 0x90, 0x62, 0xba, 0xbe, 0x82, 0xf4, 0xe2, 0x3c,
  0x6a, 0xcb, 0xb2, 0x3e, 0x20, 0x0b, 0x05, 0xbd, 0x1a, 0x6a, 0x6f, 0xbe,
  0xc5, 0x9f, 0xc3, 0xbe, 0xec, 0x29, 0x55, 0x3e, 0x9d, 0xa8, 0x10, 0x3e,
  0xa9, 0x7f, 0x05, 0xbe, 0x10, 0x1c, 0x92, 0xbe, 0x0f, 0x28, 0x70, 0xbd,
  0x08, 0x07, 0x00, 0xbe, 0x0c, 0xa1, 0x0f, 0xbe, 0x4c, 0xae, 0x2d, 0xbe,
  0xbd, 0x1c, 0x3e, 0xbd, 0x05, 0x2c, 0x28, 0x3e, 0xb7, 0x4d, 0xbd, 0xbd,
  0xff, 0xcf, 0x8b, 0x3b, 0x69, 0x3a, 0x18, 0x3f, 0x05, 0xa3, 0x10, 0xbe,
  0xca, 0x63, 0x7e, 0xbe, 0x6d, 0xe0, 0x87, 0xbe, 0xc3, 0x56, 0xb7, 0x3e,
  0xad, 0xaf, 0xb8, 0x3d, 0xfd, 0xcc, 0x58, 0x3c, 0x5c, 0x7c, 0xbd, 0xbe,
  0xf2, 0x9b, 0xd9, 0xbd, 0x73, 0x7c, 0xaf, 0xbe, 0x24, 0xfb, 0xce, 0xbd,
  0x14, 0xa7, 0x82, 0xbd, 0x70, 0x4b, 0x39, 0x3e, 0xb6, 0xee, 0x9a, 0x3e,
  0xba, 0x5c, 0x84, 0x3c, 0x59, 0x5c, 0x80, 0x3d, 0xd4, 0x1d, 0x85, 0x3e,
  0xec, 0x6f, 0x44, 0xbe, 0x5c, 0x73, 0xa0, 0xbd, 0x6e, 0x8a, 0xc0, 0xbe,
  0x44, 0xa2, 0xad, 0x3d, 0xa6, 0xaf, 0x1f, 0xbe, 0xaf, 0x29, 0x2c, 0xbe,
  0x0e, 0x12, 0xad, 0xbe, 0x0a, 0x41, 0xb9, 0xbc, 0xc8, 0xae, 0x43, 0xbe,
  0x3b, 0x4a, 0x75, 0xbe, 0x3c, 0xb2, 0x93, 0xbe, 0xdd, 0xd5, 0x01, 0xbe,
  0xef, 0xb2, 0x8a, 0x3c, 0x37, 0x16, 0xab, 0xbe, 0x21, 0x60, 0x07, 0xbd,
  0xb6, 0x36, 0x17, 0xbe, 0x7c, 0x13, 0x1b, 0xbe, 0x24, 0x9d, 0x8f, 0xbe,
  0x11, 0x30, 0x8c, 0xbe, 0x3b, 0xe8, 0x96, 0x3e, 0xab, 0xf3, 0x57, 0xbd,
  0x3c, 0xe5, 0x67, 0xbe, 0x1c, 0x57, 0xac, 0xbe, 0xc0, 0xc3, 0x78, 0xbe,
  0x25, 0x5f, 0x74, 0xbe, 0xf9, 0xab, 0x10, 0xbe, 0xc3, 0x7f, 0xeb, 0xbc,
  0x7a, 0xe5, 0x1d, 0x3e, 0xbc, 0xd4, 0x29, 0xbd, 0xb8, 0xcf, 0xda, 0xbc,
  0x0b, 0xb1, 0x75, 0xbe, 0x73, 0x2f, 0xa4, 0xbd, 0x2b, 0x9c, 0x23, 0x3d,
  0x86, 0xda, 0x8c, 0xbe, 0x35, 0x9d, 0xa6, 0xbd, 0xfc, 0x5d, 0x92, 0xbe,
  0xd1, 0x15, 0xf2, 0xbd, 0x62, 0x67, 0x33, 0xbe, 0xa2, 0x39, 0xa2, 0xbd,
  0x4d, 0xb5, 0x61, 0xbd, 0x09, 0x08, 0x6d, 0xbe, 0xa1, 0xf8, 0xaf, 0x3d,
  0xbe, 0x34, 0x3e, 0xbe, 0x61, 0x17, 0x24, 0xbe, 0x95, 0x50, 0x4b, 0x3d,
  0x17, 0x93, 0xa6, 0xbd, 0x21, 0xdf, 0x1e, 0x3e, 0x64, 0x24, 0xd7, 0xbc,
  0x89, 0xcc, 0x9d, 0x3d, 0xe1, 0xb8, 0x97, 0x3d, 0x70, 0x6e, 0xfa, 0xbd,
  0x01, 0x91, 0x84, 0xbd, 0xf4, 0x31, 0x39, 0xbe, 0x11, 0x06, 0x3c, 0x3a,
  0x94, 0xdf, 0x42, 0xbe, 0xd8, 0xb4, 0x6c, 0x3d, 0x59, 0x82, 0x4f, 0xbe,
  0xf0, 0x17, 0xe3, 0x3c, 0x82, 0xe8, 0xfb, 0xbd, 0x0a, 0x9e, 0xff, 0x3d,
  0xe4, 0x56, 0x24, 0x3d, 0x2f, 0xdf, 0x9f, 0xbd, 0x1a, 0x55, 0x35, 0xbe,
  0x38, 0xd8, 0x2f, 0xbd, 0xdd, 0xfc, 0xed, 0xbb, 0xa8, 0xa2, 0x6c, 0xbe,
  0xb8, 0xd9, 0x1e, 0xbe, 0x7b, 0x2b, 0x1c, 0x3c, 0x1a, 0x8f, 0xd5, 0x3d,
  0xbe, 0x3a, 0x4e, 0xbd, 0x96, 0xad, 0xf3, 0xbc, 0x50, 0x50, 0x10, 0xbd,
  0xf9, 0xda, 0xf4, 0x3c, 0xf8, 0xb9, 0xc0, 0xbd, 0xe6, 0xc1, 0xdd, 0x3d,
  0x32, 0xf2, 0xa8, 0x3c, 0x61, 0x0f, 0x57, 0xbe, 0x6e, 0x3e, 0x23, 0xbe,
  0xaf, 0xb5, 0x8d, 0x3d, 0xba, 0x98, 0x1f, 0x3e, 0xe7, 0xfb, 0x95, 0xbd,
  0x68, 0x75, 0x9f, 0xbe, 0x08, 0x75, 0xb5, 0xbe, 0x95, 0xa3, 0x06, 0xbe,
  0x1e, 0x7d, 0x75, 0x3d, 0x01, 0xeb, 0x6c, 0x3d, 0x6f, 0x26, 0x46, 0xbe,
  0x85, 0xde, 0x0a, 0xbe, 0xe1, 0xc3, 0x7c, 0xbe, 0x47, 0xf7, 0xae, 0xbd,
  0x41, 0x56, 0xc3, 0x3d, 0x9f, 0x76, 0x48, 0xbe, 0xc5, 0xb4, 0xce, 0xbc,
  0x17, 0x8f, 0x28, 0x3c, 0x40, 0x6b, 0x5f, 0xbe, 0x4f, 0x85, 0x5e, 0xbd,
  0xa7, 0x60, 0x33, 0xbd, 0xa0, 0x8a, 0xa4, 0x3d, 0x42, 0x9f, 0x48, 0xbe,
  0x72, 0xdd, 0x82, 0xbd, 0xc4, 0xa2, 0x2b, 0x3d, 0xc0, 0x59, 0x0b, 0xbe,
  0x54, 0x5c, 0x8e, 0xbe, 0xab, 0xed, 0xad, 0xbc, 0xbe, 0x4c, 0xb7, 0xbd,
  0x88, 0x5d, 0x0d, 0xbe, 0x0c, 0x13, 0x8a, 0xbd, 0x5f, 0xd8, 0x38, 0x3d,
  0x37, 0xeb, 0xf2, 0xbd, 0x64, 0x43, 0x7c, 0xbe, 0x12, 0x81, 0xf5, 0x3d,
  0x88, 0x76, 0x35, 0xbe, 0x8c, 0x48, 0x29, 0xbe, 0xa9, 0xff, 0xf3, 0x3c,
  0x5e, 0x59, 0x93, 0xbe, 0x5f, 0x66, 0x28, 0xbe, 0xf4, 0xa7, 0x54, 0xbd,
  0x2f, 0x58, 0x6c, 0xbe, 0xf4, 0xe6, 0x50, 0xbe, 0x1e, 0x11, 0x88, 0x3d,
  0xb2, 0xba, 0x2f, 0xbd, 0xd0, 0x90, 0x68, 0xbd, 0xa4, 0xc0, 0x23, 0xbe,
  0xb4, 0x4c, 0x8a, 0xbd, 0x53, 0x69, 0xb9, 0x3d, 0x2e, 0xfc, 0xc7, 0x3c,
  0x80, 0x37, 0xa4, 0xbd, 0xb1, 0x5d, 0xf1, 0xbd, 0xde, 0x38, 0x35, 0x3d,
  0x6e, 0x1b, 0x0b, 0xbe, 0xc1, 0xa3, 0xf2, 0xbd, 0xf9, 0x3e, 0x1c, 0xbe,
  0xf4, 0xb7, 0xd4, 0xbd, 0xf1, 0x5d, 0x83, 0xbe, 0x4d, 0x36, 0x16, 0xbe,
  0xe0, 0xf5, 0x37, 0xbb, 0x7a, 0x2a, 0xaa, 0xbd, 0x91, 0x04, 0x18, 0xbe,
  0x40, 0x7f, 0x29, 0xbe, 0x24, 0x3f, 0xb2, 0x3d, 0x56, 0x68, 0x5a, 0x3c,
  0x02, 0x70, 0x66, 0x3d, 0x77, 0xe3, 0x54, 0xbd, 0x3c, 0xb2, 0x64, 0x3d,
  0xe2, 0x0c, 0x91, 0xbd, 0x81, 0x4b, 0x8c, 0xbe, 0x77, 0xed, 0x10, 0xbd,
  0x9c, 0x20, 0x78, 0x3d, 0x8a, 0x01, 0x3c, 0xbe, 0x18, 0xc8, 0x83, 0xbe,
  0xfe, 0x6c, 0x50, 0xbe, 0x85, 0x2b, 0xdd, 0x3c, 0x4d, 0x88, 0xa1, 0xbd,
  0xf4, 0x89, 0x58, 0x3d, 0xea, 0xfb, 0xb7, 0xbd, 0xc1, 0x8e, 0xb3, 0x3d,
  0xdf, 0x13, 0x3b, 0xbe, 0x7f, 0xec, 0x70, 0xbe, 0x06, 0x9f, 0x93, 0xbd,
  0x52, 0xf8, 0xc9, 0x3b, 0xaf, 0x9f, 0xc1, 0x3d, 0x16, 0x05, 0xbf, 0x3d,
  0xda, 0xca, 0xe6, 0x3d, 0xf3, 0x52, 0xc7, 0xbc, 0x34, 0xed, 0x80, 0xbe,
  0x9b, 0x7f, 0x98, 0xbb, 0x64, 0x46, 0x9b, 0xbd, 0x5d, 0xe1, 0x26, 0xbe,
  0xaf, 0xb6, 0xf4, 0x3b, 0x05, 0xdd, 0x34, 0xbd, 0xf3, 0x44, 0x11, 0xbe,
  0x57, 0x43, 0xfe, 0x3d, 0x75, 0x64, 0xa8, 0x3d, 0x90, 0xc2, 0xcd, 0xbc,
  0xd9, 0x1b, 0xdc, 0x3d, 0xed, 0x3f, 0x3e, 0x3d, 0x2a, 0x01, 0x1e, 0x3e,
  0xd0, 0xa5, 0x64, 0xbe, 0x70, 0x45, 0x4a, 0xbe, 0xfd, 0x32, 0x5b, 0xbd,
  0x92, 0xef, 0xaf, 0x3d, 0xed, 0x2b, 0x0c, 0x3d, 0xe1, 0xd3, 0x29, 0x3c,
  0x2d, 0x6f, 0x6a, 0xbd, 0x4f, 0xae, 0x20, 0xbc, 0xd0, 0xe3, 0xbb, 0x3c,
  0xc1, 0x0e, 0x5f, 0xbc, 0x05, 0x65, 0x5a, 0x3c, 0x1a, 0xba, 0xb2, 0x3d,
  0x68, 0xdb, 0x43, 0x3d, 0xde, 0xee, 0xe4, 0xbd, 0xb2, 0xd4, 0x40, 0xbd,
  0x31, 0xd2, 0xf2, 0xbc, 0x72, 0xf5, 0xd7, 0xbd, 0x46, 0x3d, 0x30, 0xbe,
  0x89, 0x61, 0x70, 0xbe, 0xeb, 0xb0, 0xd9, 0xbd, 0xd0, 0x28, 0x8f, 0x3d,
  0x82, 0x64, 0x34, 0xbe, 0x0b, 0x7a, 0x07, 0xbe, 0x62, 0x62, 0x5a, 0xbe,
  0xc5, 0x24, 0xad, 0x3c, 0xe4, 0x67, 0x0d, 0xbe, 0x5d, 0x02, 0x55, 0xbe,
  0xa4, 0xb2, 0x4e, 0xbe, 0xaa, 0xd7, 0x9d, 0xbe, 0xaa, 0x6f, 0x1e, 0x3e,
  0xee, 0x0c, 0x81, 0x3d, 0x2a, 0xdf, 0x18, 0xbe, 0x6c, 0x43, 0x42, 0xbe,
  0x0a, 0xed, 0x17, 0xbe, 0x62, 0x6c, 0x81, 0xbd, 0x8e, 0x11, 0x01, 0xbe,
  0xb7, 0x9b, 0xaa, 0x3d, 0xe7, 0x46, 0x95, 0xbc, 0x64, 0x00, 0x1d, 0xbd,
  0x3f, 0x9b, 0x95, 0x38, 0x56, 0x58, 0xff, 0x3c, 0x90, 0xb8, 0x4d, 0xbe,
  0x39, 0xbf, 0x3a, 0x3e, 0xa1, 0x7d, 0x38, 0xbd, 0x15, 0x27, 0x3f, 0xbe,
  0x22, 0x61, 0x4c, 0xbe, 0xe9, 0xb9, 0x29, 0x3c, 0xa3, 0xc9, 0x9c, 0xbc,
  0x0c, 0xa5, 0x6c, 0x3d, 0x3a, 0x45, 0x62, 0xbe, 0xd7, 0x24, 0x59, 0xbd,
  0x75, 0x98, 0x9b, 0xbd, 0xa7, 0x6f, 0x92, 0x3d, 0x91, 0x6b, 0x18, 0x3d,
  0x6f, 0x4b, 0x30, 0xbe, 0x0f, 0x5a, 0x86, 0xbe, 0x83, 0x15, 0xa4, 0xbb,
  0xa0, 0xe2, 0xce, 0xbd, 0x9c, 0x60, 0x14, 0xbd, 0x9b, 0x50, 0x90, 0x3d,
  0x8d, 0x82, 0x8c, 0xbe, 0x45, 0xf5, 0x12, 0xbd, 0xde, 0x19, 0x5c, 0xbe,
  0x2e, 0xeb, 0x9d, 0x3c, 0x18, 0xac, 0xf1, 0xbd, 0x57, 0xbf, 0x4d, 0xbe,
  0xd0, 0x27, 0x0a, 0xbe, 0x99, 0x4c, 0x6c, 0xbe, 0xdc, 0x76, 0x82, 0xbe,
  0x4b, 0x2b, 0x8f, 0xbe, 0x29, 0xe0, 0x4b, 0xbe, 0x8f, 0x33, 0x60, 0xbe,
  0xba, 0xe1, 0x63, 0xbe, 0x62, 0xfd, 0xff, 0xff, 0x10, 0x00, 0x00, 0x00,
  0x07, 0x00, 0x00, 0x00, 0x14, 0x00, 0x00, 0x00, 0x2c, 0x00, 0x00, 0x00,
  0x02, 0x00, 0x00, 0x00, 0x10, 0x00, 0x00, 0x00, 0x70, 0x00, 0x00, 0x00,
  0x17, 0x00, 0x00, 0x00, 0x73, 0x65, 0x71, 0x75, 0x65, 0x6e, 0x74, 0x69,
  0x61, 0x6c, 0x2f, 0x64, 0x65, 0x6e, 0x73, 0x65, 0x2f, 0x4d, 0x61, 0x74,
  0x4d, 0x75, 0x6c, 0x00, 0xcc, 0xfc, 0xff, 0xff, 0xd6, 0xfd, 0xff, 0xff,
  0x04, 0x00, 0x00, 0x00, 0x08, 0x00, 0x00, 0x00, 0xff, 0xff, 0xff, 0xff,
  0x70, 0x00, 0x00, 0x00, 0x00, 0x00, 0x0e, 0x00, 0x18, 0x00, 0x08, 0x00,
  0x07, 0x00, 0x0c, 0x00, 0x10, 0x00, 0x14, 0x00, 0x0e, 0x00, 0x00, 0x00,
  0x00, 0x00, 0x00, 0x02, 0x10, 0x00, 0x00, 0x00, 0x06, 0x00, 0x00, 0x00,
  0x10, 0x00, 0x00, 0x00, 0x2c, 0x00, 0x00, 0x00, 0x01, 0x00, 0x00, 0x00,
  0x02, 0x00, 0x00, 0x00, 0x18, 0x00, 0x00, 0x00, 0x73, 0x65, 0x71, 0x75,
  0x65, 0x6e, 0x74, 0x69, 0x61, 0x6c, 0x2f, 0x66, 0x6c, 0x61, 0x74, 0x74,
  0x65, 0x6e, 0x2f, 0x43, 0x6f, 0x6e, 0x73, 0x74, 0x00, 0x00, 0x00, 0x00,
  0x34, 0xfd, 0xff, 0xff, 0x3e, 0xfe, 0xff, 0xff, 0x04, 0x00, 0x00, 0x00,
  0x10, 0x00, 0x00, 0x00, 0x04, 0xda, 0x9c, 0xbf, 0xb1, 0x57, 0x28, 0xc0,
  0x65, 0xb7, 0xa0, 0xbe, 0x38, 0xce, 0x1c, 0x40, 0x26, 0xfe, 0xff, 0xff,
  0x10, 0x00, 0x00, 0x00, 0x05, 0x00, 0x00, 0x00, 0x10, 0x00, 0x00, 0x00,
  0x44, 0x00, 0x00, 0x00, 0x01, 0x00, 0x00, 0x00, 0x04, 0x00, 0x00, 0x00,
  0x32, 0x00, 0x00, 0x00, 0x73, 0x65, 0x71, 0x75, 0x65, 0x6e, 0x74, 0x69,
  0x61, 0x6c, 0x2f, 0x64, 0x65, 0x6e, 0x73, 0x65, 0x5f, 0x31, 0x2f, 0x42,
  0x69, 0x61, 0x73, 0x41, 0x64, 0x64, 0x2f, 0x52, 0x65, 0x61, 0x64, 0x56,
  0x61, 0x72, 0x69, 0x61, 0x62, 0x6c, 0x65, 0x4f, 0x70, 0x2f, 0x72, 0x65,
  0x73, 0x6f, 0x75, 0x72, 0x63, 0x65, 0x00, 0x00, 0xa8, 0xfd, 0xff, 0xff,
  0xb2, 0xfe, 0xff, 0xff, 0x04, 0x00, 0x00, 0x00, 0x40, 0x00, 0x00, 0x00,
  0xd3, 0xbf, 0x8f, 0x3f, 0xd3, 0x9c, 0x44, 0xbe, 0x70, 0xfb, 0x71, 0xbf,
  0xba, 0xa5, 0x91, 0x3f, 0x1b, 0x21, 0xe9, 0xbd, 0x0d, 0xe2, 0x39, 0xbe,
  0x7f, 0x2d, 0xe7, 0xbd, 0xd2, 0x99, 0x10, 0xbf, 0x8f, 0xdd, 0x86, 0x3d,
  0xeb, 0xee, 0xb6, 0xbe, 0xca, 0x10, 0x8f, 0x3f, 0xcd, 0x6e, 0x3d, 0x3f,
  0xfd, 0x49, 0xe1, 0x3d, 0xa3, 0x3e, 0x7f, 0x3f, 0x7f, 0x5f, 0x47, 0xbe,
  0x18, 0x54, 0x41, 0xbe, 0xca, 0xfe, 0xff, 0xff, 0x10, 0x00, 0x00, 0x00,
  0x04, 0x00, 0x00, 0x00, 0x10, 0x00, 0x00, 0x00, 0x44, 0x00, 0x00, 0x00,
  0x01, 0x00, 0x00, 0x00, 0x10, 0x00, 0x00, 0x00, 0x30, 0x00, 0x00, 0x00,
  0x73, 0x65, 0x71, 0x75, 0x65, 0x6e, 0x74, 0x69, 0x61, 0x6c, 0x2f, 0x64,
  0x65, 0x6e, 0x73, 0x65, 0x2f, 0x42, 0x69, 0x61, 0x73, 0x41, 0x64, 0x64,
  0x2f, 0x52, 0x65, 0x61, 0x64, 0x56, 0x61, 0x72, 0x69, 0x61, 0x62, 0x6c,
  0x65, 0x4f, 0x70, 0x2f, 0x72, 0x65, 0x73, 0x6f, 0x75, 0x72, 0x63, 0x65,
  0x00, 0x00, 0x00, 0x00, 0x4c, 0xfe, 0xff, 0xff, 0x56, 0xff, 0xff, 0xff,
  0x04, 0x00, 0x00, 0x00, 0x40, 0x00, 0x00, 0x00, 0x19, 0x82, 0x18, 0xbf,
  0x08, 0x1d, 0x11, 0xbc, 0x3d, 0xa6, 0x69, 0x3f, 0x57, 0xaa, 0x0d, 0x3c,
  0x40, 0x2e, 0x92, 0xbf, 0xdb, 0x52, 0x84, 0x3f, 0x14, 0xa6, 0xad, 0xbf,
  0x83, 0x13, 0xa3, 0xbf, 0x6b, 0x17, 0xc0, 0xbf, 0xc9, 0xaa, 0xfd, 0x3f,
  0x0d, 0x6b, 0x04, 0x3e, 0xe7, 0xa5, 0x7a, 0xbf, 0x63, 0xd9, 0x7c, 0xbf,
  0x7c, 0x6e, 0xbc, 0xbf, 0xfa, 0x0f, 0xf9, 0xbc, 0xcb, 0x3c, 0x28, 0xbf,
  0x6e, 0xff, 0xff, 0xff, 0x10, 0x00, 0x00, 0x00, 0x03, 0x00, 0x00, 0x00,
  0x10, 0x00, 0x00, 0x00, 0x48, 0x00, 0x00, 0x00, 0x01, 0x00, 0x00, 0x00,
  0x10, 0x00, 0x00, 0x00, 0x33, 0x00, 0x00, 0x00, 0x73, 0x65, 0x71, 0x75,
  0x65, 0x6e, 0x74, 0x69, 0x61, 0x6c, 0x2f, 0x63, 0x6f, 0x6e, 0x76, 0x32,
  0x64, 0x5f, 0x31, 0x2f, 0x42, 0x69, 0x61, 0x73, 0x41, 0x64, 0x64, 0x2f,
  0x52, 0x65, 0x61, 0x64, 0x56, 0x61, 0x72, 0x69, 0x61, 0x62, 0x6c, 0x65,
  0x4f, 0x70, 0x2f, 0x72, 0x65, 0x73, 0x6f, 0x75, 0x72, 0x63, 0x65, 0x00,
  0x04, 0x00, 0x06, 0x00, 0x04, 0x00, 0x00, 0x00, 0x00, 0x00, 0x06, 0x00,
  0x08, 0x00, 0x04, 0x00, 0x06, 0x00, 0x00, 0x00, 0x04, 0x00, 0x00, 0x00,
  0x20, 0x00, 0x00, 0x00, 0x35, 0xf8, 0x61, 0xc0, 0x4e, 0x6b, 0x81, 0xbf,
  0x30, 0x89, 0x1d, 0xbf, 0xa9, 0x37, 0xe4, 0xbf, 0x5f, 0x48, 0x1d, 0xc0,
  0x3b, 0xb3, 0xe8, 0xbf, 0x98, 0xb6, 0x06, 0xbf, 0x38, 0x36, 0x8d, 0xc0,
  0x00, 0x00, 0x0e, 0x00, 0x14, 0x00, 0x04, 0x00, 0x00, 0x00, 0x08, 0x00,
  0x0c, 0x00, 0x10, 0x00, 0x0e, 0x00, 0x00, 0x00, 0x10, 0x00, 0x00, 0x00,
  0x02, 0x00, 0x00, 0x00, 0x10, 0x00, 0x00, 0x00, 0x44, 0x00, 0x00, 0x00,
  0x01, 0x00, 0x00, 0x00, 0x08, 0x00, 0x00, 0x00, 0x31, 0x00, 0x00, 0x00,
  0x73, 0x65, 0x71, 0x75, 0x65, 0x6e, 0x74, 0x69, 0x61, 0x6c, 0x2f, 0x63,
  0x6f, 0x6e, 0x76, 0x32, 0x64, 0x2f, 0x42, 0x69, 0x61, 0x73, 0x41, 0x64,
  0x64, 0x2f, 0x52, 0x65, 0x61, 0x64, 0x56, 0x61, 0x72, 0x69, 0x61, 0x62,
  0x6c, 0x65, 0x4f, 0x70, 0x2f, 0x72, 0x65, 0x73, 0x6f, 0x75, 0x72, 0x63,
  0x65, 0x00, 0x00, 0x00, 0x90, 0xff, 0xff, 0xff, 0x14, 0x00, 0x18, 0x00,
  0x04, 0x00, 0x00, 0x00, 0x08, 0x00, 0x0c, 0x00, 0x10, 0x00, 0x00, 0x00,
  0x00, 0x00, 0x14, 0x00, 0x14, 0x00, 0x00, 0x00, 0x14, 0x00, 0x00, 0x00,
  0x01, 0x00, 0x00, 0x00, 0x20, 0x00, 0x00, 0x00, 0x44, 0x00, 0x00, 0x00,
  0x2c, 0x00, 0x00, 0x00, 0x04, 0x00, 0x00, 0x00, 0x01, 0x00, 0x00, 0x00,
  0x40, 0x00, 0x00, 0x00, 0x03, 0x00, 0x00, 0x00, 0x01, 0x00, 0x00, 0x00,
  0x0c, 0x00, 0x00, 0x00, 0x63, 0x6f, 0x6e, 0x76, 0x32, 0x64, 0x5f, 0x69,
  0x6e, 0x70, 0x75, 0x74, 0x00, 0x00, 0x00, 0x00, 0x04, 0x00, 0x00, 0x00,
  0xff, 0xff, 0xff, 0xff, 0x40, 0x00, 0x00, 0x00, 0x03, 0x00, 0x00, 0x00,
  0x01, 0x00, 0x00, 0x00, 0xfc, 0xff, 0xff, 0xff, 0x04, 0x00, 0x04, 0x00,
  0x04, 0x00, 0x00, 0x00
};

unsigned int model_tflite_len = 13120;// Fill the int in `src/model.cc` here