#include "magic_wand_model_data.h"

// We need to keep the data array aligned on some architectures.
#ifdef __has_attribute
#define HAVE_ATTRIBUTE(x) __has_attribute(x)
#else
#define HAVE_ATTRIBUTE(x) 0
#endif
#if HAVE_ATTRIBUTE(aligned) || (defined(__GNUC__) && !defined(__clang__))
#define DATA_ALIGN_ATTRIBUTE __attribute__((aligned(4)))
#else
#define DATA_ALIGN_ATTRIBUTE
#endif

const unsigned char g_magic_wand_model_data[] DATA_ALIGN_ATTRIBUTE = {
  // Paste the data of the char array in `src/model.cc` here
  0x1c, 0x00, 0x00, 0x00, 0x54, 0x46, 0x4c, 0x33, 0x14, 0x00, 0x20, 0x00,
  0x04, 0x00, 0x08, 0x00, 0x0c, 0x00, 0x10, 0x00, 0x14, 0x00, 0x00, 0x00,
  0x18, 0x00, 0x1c, 0x00, 0x14, 0x00, 0x00, 0x00, 0x03, 0x00, 0x00, 0x00,
  0x18, 0x00, 0x00, 0x00, 0x2c, 0x00, 0x00, 0x00, 0xd8, 0x00, 0x00, 0x00,
  0x2c, 0x00, 0x00, 0x00, 0x80, 0x00, 0x00, 0x00, 0x78, 0x00, 0x00, 0x00,
  0x05, 0x00, 0x00, 0x00, 0x28, 0x07, 0x00, 0x00, 0x44, 0x06, 0x00, 0x00,
  0xbc, 0x03, 0x00, 0x00, 0xf8, 0x02, 0x00, 0x00, 0xac, 0x01, 0x00, 0x00,
  0x01, 0x00, 0x00, 0x00, 0xd0, 0x00, 0x00, 0x00, 0x14, 0x00, 0x00, 0x00,
  0x98, 0x32, 0x00, 0x00, 0x94, 0x32, 0x00, 0x00, 0x8c, 0x31, 0x00, 0x00,
  0xd8, 0x30, 0x00, 0x00, 0x30, 0x30, 0x00, 0x00, 0xbc, 0x2f, 0x00, 0x00,
  0x50, 0x2f, 0x00, 0x00, 0x00, 0x13, 0x00, 0x00, 0xec, 0x11, 0x00, 0x00,
  0x10, 0x10, 0x00, 0x00, 0xb4, 0x07, 0x00, 0x00, 0x6c, 0x32, 0x00, 0x00,
  0x68, 0x32, 0x00, 0x00, 0x64, 0x32, 0x00, 0x00, 0x60, 0x32, 0x00, 0x00,
  0x5c, 0x32, 0x00, 0x00, 0x58, 0x32, 0x00, 0x00, 0x54, 0x32, 0x00, 0x00,
  0x50, 0x32, 0x00, 0x00, 0x3c, 0x00, 0x00, 0x00, 0x00, 0x00, 0x00, 0x00,
  0x01, 0x00, 0x00, 0x00, 0x0c, 0x00, 0x00, 0x00, 0x08, 0x00, 0x0c, 0x00,
  0x04, 0x00, 0x08, 0x00, 0x08, 0x00, 0x00, 0x00, 0x08, 0x00, 0x00, 0x00,
  0x13, 0x00, 0x00, 0x00, 0x13, 0x00, 0x00, 0x00, 0x6d, 0x69, 0x6e, 0x5f,
  0x72, 0x75, 0x6e, 0x74, 0x69, 0x6d, 0x65, 0x5f, 0x76, 0x65, 0x72, 0x73,
  0x69, 0x6f, 0x6e, 0x00, 0xfa, 0xce, 0xff, 0xff, 0x04, 0x00, 0x00, 0x00,
  0x10, 0x00, 0x00, 0x00, 0x31, 0x2e, 0x35, 0x2e, 0x30, 0x00, 0x00, 0x00,
  0x00, 0x00, 0x00, 0x00, 0x00, 0x00, 0x00, 0x00, 0x0f, 0x00, 0x00, 0x00,
  0x4d, 0x4c, 0x49, 0x52, 0x20, 0x43, 0x6f, 0x6e, 0x76, 0x65, 0x72, 0x74,
  0x65, 0x64, 0x2e, 0x00, 0x00, 0x00, 0x0e, 0x00, 0x18, 0x00, 0x04, 0x00,
  0x08, 0x00, 0x0c, 0x00, 0x10, 0x00, 0x14, 0x00, 0x0e, 0x00, 0x00, 0x00,
  0x14, 0x00, 0x00, 0x00, 0x5c, 0x00, 0x00, 0x00, 0x60, 0x00, 0x00, 0x00,
  0x64, 0x00, 0x00, 0x00, 0x84, 0x00, 0x00, 0x00, 0x12, 0x00, 0x00, 0x00,
  0x58, 0x31, 0x00, 0x00, 0xe8, 0x30, 0x00, 0x00, 0x44, 0x30, 0x00, 0x00,
  0x9c, 0x2f, 0x00, 0x00, 0xf4, 0x2e, 0x00, 0x00, 0x94, 0x2e, 0x00, 0x00,
  0x2c, 0x2e, 0x00, 0x00, 0xd8, 0x11, 0x00, 0x00, 0xbc, 0x10, 0x00, 0x00,
  0xe0, 0x0e, 0x00, 0x00, 0x0c, 0x06, 0x00, 0x00, 0x28, 0x05, 0x00, 0x00,
  0xe8, 0x03, 0x00, 0x00, 0x3c, 0x03, 0x00, 0x00, 0x98, 0x02, 0x00, 0x00,
  0xd4, 0x01, 0x00, 0x00, 0x10, 0x01, 0x00, 0x00, 0x84, 0x00, 0x00, 0x00,
  0x01, 0x00, 0x00, 0x00, 0x00, 0x00, 0x00, 0x00, 0x01, 0x00, 0x00, 0x00,
  0x11, 0x00, 0x00, 0x00, 0x08, 0x00, 0x00, 0x00, 0x74, 0x05, 0x00, 0x00,
  0x94, 0x04, 0x00, 0x00, 0x78, 0x03, 0x00, 0x00, 0xbc, 0x02, 0x00, 0x00,
  0x30, 0x02, 0x00, 0x00, 0x50, 0x01, 0x00, 0x00, 0xa8, 0x00, 0x00, 0x00,
  0x10, 0x00, 0x00, 0x00, 0x04, 0x00, 0x00, 0x00, 0x6d, 0x61, 0x69, 0x6e,
  0x00, 0x00, 0x00, 0x00, 0x7a, 0xff, 0xff, 0xff, 0x00, 0x00, 0x00, 0x09,
  0x04, 0x00, 0x00, 0x00, 0x1c, 0x00, 0x00, 0x00, 0x10, 0x00, 0x00, 0x00,
  0x04, 0x00, 0x00, 0x00, 0xf6, 0xcf, 0xff, 0xff, 0x00, 0x00, 0x80, 0x3f,
  0x01, 0x00, 0x00, 0x00, 0x11, 0x00, 0x00, 0x00, 0x01, 0x00, 0x00, 0x00,
  0x10, 0x00, 0x00, 0x00, 0xa0, 0xfa, 0xff, 0xff, 0x19, 0x00, 0x00, 0x00,
  0x00, 0x00, 0x00, 0x19, 0x01, 0x00, 0x00, 0x00, 0x84, 0xcf, 0xff, 0xff,
  0x14, 0x00, 0x00, 0x00, 0x12, 0x00, 0x00, 0x00, 0x18, 0x00, 0x00, 0x00,
  0x30, 0x00, 0x00, 0x00, 0x20, 0x00, 0x00, 0x00, 0x02, 0x00, 0x00, 0x00,
  0x01, 0x00, 0x00, 0x00, 0x03, 0x00, 0x00, 0x00, 0x08, 0x00, 0x00, 0x00,
  0x49, 0x64, 0x65, 0x6e, 0x74, 0x69, 0x74, 0x79, 0x00, 0x00, 0x00, 0x00,
  0x02, 0x00, 0x00, 0x00, 0xff, 0xff, 0xff, 0xff, 0x03, 0x00, 0x00, 0x00,
  0x68, 0xd0, 0xff, 0xff, 0x00, 0x00, 0x0e, 0x00, 0x18, 0x00, 0x08, 0x00,
  0x0c, 0x00, 0x10, 0x00, 0x07, 0x00, 0x14, 0x00, 0x0e, 0x00, 0x00, 0x00,
  0x00, 0x00, 0x00, 0x08, 0x03, 0x00, 0x00, 0x00, 0x18, 0x00, 0x00, 0x00,
  0x0c, 0x00, 0x00, 0x00, 0x04, 0x00, 0x00, 0x00, 0x84, 0xcf, 0xff, 0xff,
  0x01, 0x00, 0x00, 0x00, 0x10, 0x00, 0x00, 0x00, 0x03, 0x00, 0x00, 0x00,
  0x0f, 0x00, 0x00, 0x00, 0x07, 0x00, 0x00, 0x00, 0x04, 0x00, 0x00, 0x00,
  0x0c, 0xd0, 0xff, 0xff, 0x14, 0x00, 0x00, 0x00, 0x11, 0x00, 0x00, 0x00,
  0x18, 0x00, 0x00, 0x00, 0x5c, 0x00, 0x00, 0x00, 0x4c, 0x00, 0x00, 0x00,
  0x02, 0x00, 0x00, 0x00, 0x01, 0x00, 0x00, 0x00, 0x03, 0x00, 0x00, 0x00,
  0x34, 0x00, 0x00, 0x00, 0x73, 0x65, 0x71, 0x75, 0x65, 0x6e, 0x74, 0x69,
  0x61, 0x6c, 0x2f, 0x64, 0x65, 0x6e, 0x73, 0x65, 0x5f, 0x31, 0x2f, 0x4d,
  0x61, 0x74, 0x4d, 0x75, 0x6c, 0x3b, 0x73, 0x65, 0x71, 0x75, 0x65, 0x6e,
  0x74, 0x69, 0x61, 0x6c, 0x2f, 0x64, 0x65, 0x6e, 0x73, 0x65, 0x5f, 0x31,
  0x2f, 0x42, 0x69, 0x61, 0x73, 0x41, 0x64, 0x64, 0x00, 0x00, 0x00, 0x00,
  0x02, 0x00, 0x00, 0x00, 0xff, 0xff, 0xff, 0xff, 0x03, 0x00, 0x00, 0x00,
  0x0c, 0xd0, 0xff, 0xff, 0xda, 0xfc, 0xff, 0xff, 0x00, 0x00, 0x00, 0x08,
  0x03, 0x00, 0x00, 0x00, 0x24, 0x00, 0x00, 0x00, 0x18, 0x00, 0x00, 0x00,
  0x0c, 0x00, 0x00, 0x00, 0x00, 0x00, 0x06, 0x00, 0x08, 0x00, 0x07, 0x00,
  0x06, 0x00, 0x00, 0x00, 0x00, 0x00, 0x00, 0x01, 0x01, 0x00, 0x00, 0x00,
  0x0f, 0x00, 0x00, 0x00, 0x03, 0x00, 0x00, 0x00, 0x0e, 0x00, 0x00, 0x00,
  0x06, 0x00, 0x00, 0x00, 0x03, 0x00, 0x00, 0x00, 0xe8, 0xfb, 0xff, 0xff,
  0x09, 0x00, 0x00, 0x00, 0x00, 0x00, 0x00, 0x09, 0x01, 0x00, 0x00, 0x00,
  0xcc, 0xd0, 0xff, 0xff, 0x14, 0x00, 0x00, 0x00, 0x10, 0x00, 0x00, 0x00,
  0x18, 0x00, 0x00, 0x00, 0x6c, 0x00, 0x00, 0x00, 0x5c, 0x00, 0x00, 0x00,
  0x02, 0x00, 0x00, 0x00, 0x01, 0x00, 0x00, 0x00, 0x10, 0x00, 0x00, 0x00,
  0x46, 0x00, 0x00, 0x00, 0x73, 0x65, 0x71, 0x75, 0x65, 0x6e, 0x74, 0x69,
  0x61, 0x6c, 0x2f, 0x64, 0x65, 0x6e, 0x73, 0x65, 0x2f, 0x4d, 0x61, 0x74,
  0x4d, 0x75, 0x6c, 0x3b, 0x73, 0x65, 0x71, 0x75, 0x65, 0x6e, 0x74, 0x69,
  0x61, 0x6c, 0x2f, 0x64, 0x65, 0x6e, 0x73, 0x65, 0x2f, 0x52, 0x65, 0x6c,
  0x75, 0x3b, 0x73, 0x65, 0x71, 0x75, 0x65, 0x6e, 0x74, 0x69, 0x61, 0x6c,
  0x2f, 0x64, 0x65, 0x6e, 0x73, 0x65, 0x2f, 0x42, 0x69, 0x61, 0x73, 0x41,
  0x64, 0x64, 0x00, 0x00, 0x02, 0x00, 0x00, 0x00, 0xff, 0xff, 0xff, 0xff,
  0x10, 0x00, 0x00, 0x00, 0xec, 0xd1, 0xff, 0xff, 0x00, 0x00, 0x0a, 0x00,
  0x10, 0x00, 0x04, 0x00, 0x08, 0x00, 0x0c, 0x00, 0x0a, 0x00, 0x00, 0x00,
  0x02, 0x00, 0x00, 0x00, 0x10, 0x00, 0x00, 0x00, 0x04, 0x00, 0x00, 0x00,
  0x01, 0x00, 0x00, 0x00, 0x0e, 0x00, 0x00, 0x00, 0x02, 0x00, 0x00, 0x00,
  0x0d, 0x00, 0x00, 0x00, 0x05, 0x00, 0x00, 0x00, 0xa8, 0xfc, 0xff, 0xff,
  0x16, 0x00, 0x00, 0x00, 0x00, 0x00, 0x00, 0x16, 0x01, 0x00, 0x00, 0x00,
  0x8c, 0xd1, 0xff, 0xff, 0x14, 0x00, 0x00, 0x00, 0x0f, 0x00, 0x00, 0x00,
  0x18, 0x00, 0x00, 0x00, 0x40, 0x00, 0x00, 0x00, 0x30, 0x00, 0x00, 0x00,
  0x02, 0x00, 0x00, 0x00, 0x01, 0x00, 0x00, 0x00, 0x70, 0x00, 0x00, 0x00,
  0x1a, 0x00, 0x00, 0x00, 0x73, 0x65, 0x71, 0x75, 0x65, 0x6e, 0x74, 0x69,
  0x61, 0x6c, 0x2f, 0x66, 0x6c, 0x61, 0x74, 0x74, 0x65, 0x6e, 0x2f, 0x52,
  0x65, 0x73, 0x68, 0x61, 0x70, 0x65, 0x00, 0x00, 0x02, 0x00, 0x00, 0x00,
  0xff, 0xff, 0xff, 0xff, 0x70, 0x00, 0x00, 0x00, 0x70, 0xd1, 0xff, 0xff,
  0x3e, 0xfe, 0xff, 0xff, 0x00, 0x00, 0x00, 0x05, 0x01, 0x00, 0x00, 0x00,
  0x38, 0x00, 0x00, 0x00, 0x2c, 0x00, 0x00, 0x00, 0x14, 0x00, 0x00, 0x00,
  0x00, 0x00, 0x0e, 0x00, 0x14, 0x00, 0x00, 0x00, 0x10, 0x00, 0x0c, 0x00,
  0x08, 0x00, 0x04, 0x00, 0x0e, 0x00, 0x00, 0x00, 0x03, 0x00, 0x00, 0x00,
  0x01, 0x00, 0x00, 0x00, 0x03, 0x00, 0x00, 0x00, 0x01, 0x00, 0x00, 0x00,
  0x01, 0x00, 0x00, 0x00, 0x0d, 0x00, 0x00, 0x00, 0x01, 0x00, 0x00, 0x00,
  0x0c, 0x00, 0x00, 0x00, 0x2c, 0xd2, 0xff, 0xff, 0x14, 0x00, 0x00, 0x00,
  0x0e, 0x00, 0x00, 0x00, 0x20, 0x00, 0x00, 0x00, 0x58, 0x00, 0x00, 0x00,
  0x40, 0x00, 0x00, 0x00, 0x04, 0x00, 0x00, 0x00, 0x01, 0x00, 0x00, 0x00,
  0x07, 0x00, 0x00, 0x00, 0x01, 0x00, 0x00, 0x00, 0x10, 0x00, 0x00, 0x00,
  0x22, 0x00, 0x00, 0x00, 0x73, 0x65, 0x71, 0x75, 0x65, 0x6e, 0x74, 0x69,
  0x61, 0x6c, 0x2f, 0x6d, 0x61, 0x78, 0x5f, 0x70, 0x6f, 0x6f, 0x6c, 0x69,
  0x6e, 0x67, 0x32, 0x64, 0x5f, 0x31, 0x2f, 0x4d, 0x61, 0x78, 0x50, 0x6f,
  0x6f, 0x6c, 0x00, 0x00, 0x04, 0x00, 0x00, 0x00, 0xff, 0xff, 0xff, 0xff,
  0x07, 0x00, 0x00, 0x00, 0x01, 0x00, 0x00, 0x00, 0x10, 0x00, 0x00, 0x00,
  0x28, 0xd2, 0xff, 0xff, 0x1a, 0xfe, 0xff, 0xff, 0x00, 0x00, 0x00, 0x01,
  0x24, 0x00, 0x00, 0x00, 0x18, 0x00, 0x00, 0x00, 0x04, 0x00, 0x00, 0x00,
  0x0c, 0xfe, 0xff, 0xff, 0x01, 0x00, 0x00, 0x00, 0x01, 0x00, 0x00, 0x00,
  0x00, 0x00, 0x00, 0x01, 0x01, 0x00, 0x00, 0x00, 0x0c, 0x00, 0x00, 0x00,
  0x03, 0x00, 0x00, 0x00, 0x0b, 0x00, 0x00, 0x00, 0x09, 0x00, 0x00, 0x00,
  0x02, 0x00, 0x00, 0x00, 0xd4, 0xd2, 0xff, 0xff, 0x14, 0x00, 0x00, 0x00,
  0x0d, 0x00, 0x00, 0x00, 0x20, 0x00, 0x00, 0x00, 0xb8, 0x00, 0x00, 0x00,
  0xa0, 0x00, 0x00, 0x00, 0x04, 0x00, 0x00, 0x00, 0x01, 0x00, 0x00, 0x00,
  0x15, 0x00, 0x00, 0x00, 0x01, 0x00, 0x00, 0x00, 0x10, 0x00, 0x00, 0x00,
  0x83, 0x00, 0x00, 0x00, 0x73, 0x65, 0x71, 0x75, 0x65, 0x6e, 0x74, 0x69,
  0x61, 0x6c, 0x2f, 0x63, 0x6f, 0x6e, 0x76, 0x32, 0x64, 0x5f, 0x31, 0x2f,
  0x52, 0x65, 0x6c, 0x75, 0x3b, 0x73, 0x65, 0x71, 0x75, 0x65, 0x6e, 0x74,
  0x69, 0x61, 0x6c, 0x2f, 0x63, 0x6f, 0x6e, 0x76, 0x32, 0x64, 0x5f, 0x31,
  0x2f, 0x42, 0x69, 0x61, 0x73, 0x41, 0x64, 0x64, 0x3b, 0x73, 0x65, 0x71,
  0x75, 0x65, 0x6e, 0x74, 0x69, 0x61, 0x6c, 0x2f, 0x63, 0x6f, 0x6e, 0x76,
  0x32, 0x64, 0x5f, 0x31, 0x2f, 0x43, 0x6f, 0x6e, 0x76, 0x32, 0x44, 0x3b,
  0x73, 0x65, 0x71, 0x75, 0x65, 0x6e, 0x74, 0x69, 0x61, 0x6c, 0x2f, 0x63,
  0x6f, 0x6e, 0x76, 0x32, 0x64, 0x5f, 0x31, 0x2f, 0x42, 0x69, 0x61, 0x73,
  0x41, 0x64, 0x64, 0x2f, 0x52, 0x65, 0x61, 0x64, 0x56, 0x61, 0x72, 0x69,
  0x61, 0x62, 0x6c, 0x65, 0x4f, 0x70, 0x2f, 0x72, 0x65, 0x73, 0x6f, 0x75,
  0x72, 0x63, 0x65, 0x00, 0x04, 0x00, 0x00, 0x00, 0xff, 0xff, 0xff, 0xff,
  0x15, 0x00, 0x00, 0x00, 0x01, 0x00, 0x00, 0x00, 0x10, 0x00, 0x00, 0x00,
  0x40, 0xd4, 0xff, 0xff, 0x00, 0x00, 0x0e, 0x00, 0x1a, 0x00, 0x08, 0x00,
  0x0c, 0x00, 0x10, 0x00, 0x07, 0x00, 0x14, 0x00, 0x0e, 0x00, 0x00, 0x00,
  0x00, 0x00, 0x00, 0x05, 0x01, 0x00, 0x00, 0x00, 0x3c, 0x00, 0x00, 0x00,
  0x30, 0x00, 0x00, 0x00, 0x14, 0x00, 0x00, 0x00, 0x00, 0x00, 0x0e, 0x00,
  0x18, 0x00, 0x17, 0x00, 0x10, 0x00, 0x0c, 0x00, 0x08, 0x00, 0x04, 0x00,
  0x0e, 0x00, 0x00, 0x00, 0x03, 0x00, 0x00, 0x00, 0x03, 0x00, 0x00, 0x00,
  0x03, 0x00, 0x00, 0x00, 0x03, 0x00, 0x00, 0x00, 0x00, 0x00, 0x00, 0x01,
  0x01, 0x00, 0x00, 0x00, 0x0b, 0x00, 0x00, 0x00, 0x01, 0x00, 0x00, 0x00,
  0x0a, 0x00, 0x00, 0x00, 0x2c, 0xff, 0xff, 0xff, 0x11, 0x00, 0x00, 0x00,
  0x00, 0x00, 0x00, 0x11, 0x01, 0x00, 0x00, 0x00, 0x10, 0xd4, 0xff, 0xff,
  0x14, 0x00, 0x00, 0x00, 0x0c, 0x00, 0x00, 0x00, 0x20, 0x00, 0x00, 0x00,
  0x58, 0x00, 0x00, 0x00, 0x40, 0x00, 0x00, 0x00, 0x04, 0x00, 0x00, 0x00,
  0x01, 0x00, 0x00, 0x00, 0x15, 0x00, 0x00, 0x00, 0x01, 0x00, 0x00, 0x00,
  0x08, 0x00, 0x00, 0x00, 0x20, 0x00, 0x00, 0x00, 0x73, 0x65, 0x71, 0x75,
  0x65, 0x6e, 0x74, 0x69, 0x61, 0x6c, 0x2f, 0x6d, 0x61, 0x78, 0x5f, 0x70,
  0x6f, 0x6f, 0x6c, 0x69, 0x6e, 0x67, 0x32, 0x64, 0x2f, 0x4d, 0x61, 0x78,
  0x50, 0x6f, 0x6f, 0x6c, 0x00, 0x00, 0x00, 0x00, 0x04, 0x00, 0x00, 0x00,
  0xff, 0xff, 0xff, 0xff, 0x15, 0x00, 0x00, 0x00, 0x01, 0x00, 0x00, 0x00,
  0x08, 0x00, 0x00, 0x00, 0x1c, 0xd5, 0xff, 0xff, 0x00, 0x00, 0x0e, 0x00,
  0x14, 0x00, 0x00, 0x00, 0x08, 0x00, 0x0c, 0x00, 0x07, 0x00, 0x10, 0x00,
  0x0e, 0x00, 0x00, 0x00, 0x00, 0x00, 0x00, 0x01, 0x30, 0x00, 0x00, 0x00,
  0x24, 0x00, 0x00, 0x00, 0x10, 0x00, 0x00, 0x00, 0x0c, 0x00, 0x10, 0x00,
  0x00, 0x00, 0x04, 0x00, 0x08, 0x00, 0x0f, 0x00, 0x0c, 0x00, 0x00, 0x00,
  0x01, 0x00, 0x00, 0x00, 0x01, 0x00, 0x00, 0x00, 0x00, 0x00, 0x00, 0x01,
  0x01, 0x00, 0x00, 0x00, 0x0a, 0x00, 0x00, 0x00, 0x03, 0x00, 0x00, 0x00,
  0x00, 0x00, 0x00, 0x00, 0x08, 0x00, 0x00, 0x00, 0x01, 0x00, 0x00, 0x00,
  0x0c, 0x00, 0x10, 0x00, 0x0b, 0x00, 0x00, 0x00, 0x0c, 0x00, 0x04, 0x00,
  0x0c, 0x00, 0x00, 0x00, 0x03, 0x00, 0x00, 0x00, 0x00, 0x00, 0x00, 0x03,
  0x01, 0x00, 0x00, 0x00, 0xf0, 0xd4, 0xff, 0xff, 0x14, 0x00, 0x00, 0x00,
  0x0b, 0x00, 0x00, 0x00, 0x20, 0x00, 0x00, 0x00, 0xb0, 0x00, 0x00, 0x00,
  0x98, 0x00, 0x00, 0x00, 0x04, 0x00, 0x00, 0x00, 0x01, 0x00, 0x00, 0x00,
  0x40, 0x00, 0x00, 0x00, 0x03, 0x00, 0x00, 0x00, 0x08, 0x00, 0x00, 0x00,
  0x7b, 0x00, 0x00, 0x00, 0x73, 0x65, 0x71, 0x75, 0x65, 0x6e, 0x74, 0x69,
  0x61, 0x6c, 0x2f, 0x63, 0x6f, 0x6e, 0x76, 0x32, 0x64, 0x2f, 0x52, 0x65,
  0x6c, 0x75, 0x3b, 0x73, 0x65, 0x71, 0x75, 0x65, 0x6e, 0x74, 0x69, 0x61,
  0x6c, 0x2f, 0x63, 0x6f, 0x6e, 0x76, 0x32, 0x64, 0x2f, 0x42, 0x69, 0x61,
  0x73, 0x41, 0x64, 0x64, 0x3b, 0x73, 0x65, 0x71, 0x75, 0x65, 0x6e, 0x74,
  0x69, 0x61, 0x6c, 0x2f, 0x63, 0x6f, 0x6e, 0x76, 0x32, 0x64, 0x2f, 0x43,
  0x6f, 0x6e, 0x76, 0x32, 0x44, 0x3b, 0x73, 0x65, 0x71, 0x75, 0x65, 0x6e,
  0x74, 0x69, 0x61, 0x6c, 0x2f, 0x63, 0x6f, 0x6e, 0x76, 0x32, 0x64, 0x2f,
  0x42, 0x69, 0x61, 0x73, 0x41, 0x64, 0x64, 0x2f, 0x52, 0x65, 0x61, 0x64,
  0x56, 0x61, 0x72, 0x69, 0x61, 0x62, 0x6c, 0x65, 0x4f, 0x70, 0x2f, 0x72,
  0x65, 0x73, 0x6f, 0x75, 0x72, 0x63, 0x65, 0x00, 0x04, 0x00, 0x00, 0x00,
  0xff, 0xff, 0xff, 0xff, 0x40, 0x00, 0x00, 0x00, 0x03, 0x00, 0x00, 0x00,
  0x08, 0x00, 0x00, 0x00, 0x44, 0xd5, 0xff, 0xff, 0x4e, 0xd6, 0xff, 0xff,
  0x04, 0x00, 0x00, 0x00, 0x00, 0x08, 0x00, 0x00, 0xcf, 0x0f, 0x0a, 0x3f,
  0x4c, 0xdb, 0x6d, 0x3e, 0x86, 0xe9, 0xcb, 0x3e, 0x01, 0xd3, 0x94, 0x3e,
  0x57, 0xd8, 0x36, 0x3e, 0x3f, 0x59, 0x65, 0x3e, 0x0e, 0xd0, 0x2b, 0x3e,
  0x43, 0x75, 0x00, 0xbf, 0x32, 0x99, 0xd2, 0xbd, 0xe7, 0x85, 0x88, 0xbd,
  0x98, 0x58, 0x87, 0xbd, 0xc0, 0x99, 0x80, 0xbe, 0x36, 0xf3, 0x35, 0xbd,
  0x70, 0x33, 0x8e, 0xbe, 0x90, 0x65, 0x46, 0xbe, 0xa4, 0x32, 0xd9, 0xbe,
  0xe2, 0x90, 0x64, 0xbe, 0xd9, 0xa7, 0xa9, 0xbd, 0xa2, 0x70, 0xef, 0xbd,
  0xd7, 0xac, 0xa4, 0xbe, 0xf1, 0xa7, 0xf9, 0x3d, 0x9c, 0x08, 0xbf, 0xbd,
  0x2e, 0x94, 0xb8, 0xbe, 0x89, 0xfc, 0x53, 0xbe, 0xaa, 0x08, 0x94, 0xbe,
  0x41, 0x37, 0x42, 0xbe, 0xcd, 0x7f, 0x77, 0xbe, 0xd8, 0x1f, 0x93, 0xbe,
  0xe3, 0xb7, 0x9c, 0xbd, 0x85, 0xf6, 0xde, 0xbd, 0xbd, 0x7a, 0x06, 0xbf,
  0xad, 0x97, 0x8a, 0x3e, 0x52, 0xc1, 0x17, 0xbf, 0x58, 0x27, 0xc6, 0xbe,
  0x8c, 0x56, 0xff, 0xbd, 0x5e, 0xbb, 0xb8, 0xbe, 0x11, 0x8e, 0xdd, 0xbe,
  0x66, 0xb3, 0xf9, 0xbe, 0x91, 0xa3, 0xc0, 0xbe, 0x69, 0xb2, 0x14, 0xbf,
  0x87, 0x71, 0x48, 0xbc, 0xb9, 0xf9, 0x84, 0x3e, 0x8c, 0x68, 0x19, 0x3d,
  0x80, 0xf1, 0x03, 0xbe, 0x49, 0x1a, 0x83, 0xbd, 0x98, 0x2f, 0xd4, 0xbe,
  0xfc, 0xcc, 0xbb, 0x3d, 0x99, 0x8c, 0x04, 0xbf, 0x48, 0x01, 0x6b, 0xbe,
  0x9e, 0xcd, 0x4d, 0x3e, 0x30, 0x9a, 0xc0, 0x3c, 0x5b, 0xb0, 0x02, 0xbe,
  0x9b, 0x82, 0xac, 0xbc, 0x3f, 0xe1, 0x37, 0xbe, 0xeb, 0x11, 0xe1, 0x3a,
  0x78, 0x37, 0xd9, 0xbe, 0xb2, 0x09, 0x0c, 0xbb, 0x6d, 0xc8, 0x42, 0x3e,
  0x43, 0x6c, 0xfd, 0x3d, 0xe5, 0x8e, 0x66, 0xbd, 0x3d, 0xd1, 0x9b, 0xbd,
  0xbb, 0x0a, 0x20, 0xbe, 0xbc, 0xf9, 0x3c, 0x3c, 0xe1, 0x7a, 0x19, 0xbe,
  0x0a, 0x0c, 0x29, 0xbf, 0x02, 0x23, 0xad, 0xbe, 0x0b, 0x19, 0xd9, 0xbe,
  0xe5, 0x41, 0x13, 0xbf, 0xc8, 0x87, 0x89, 0xbe, 0x51, 0x8e, 0x3d, 0xbf,
  0x39, 0xe1, 0x15, 0xbf, 0xf4, 0xf2, 0xdb, 0xbe, 0x4e, 0x3e, 0x9a, 0x3b,
  0x92, 0x98, 0xd8, 0x3d, 0x55, 0x5a, 0x4e, 0x3e, 0xa1, 0xfa, 0xc3, 0x3d,
  0xbe, 0xbd, 0x8c, 0x3e, 0xa3, 0x25, 0x02, 0x3d, 0x91, 0xac, 0x25, 0x3e,
  0x46, 0x8c, 0xa6, 0x3e, 0x88, 0xd8, 0xf2, 0x3d, 0x0f, 0x02, 0xf2, 0x3d,
  0x53, 0xc7, 0xe6, 0x3d, 0x15, 0x9e, 0x31, 0xbe, 0xff, 0xf3, 0xda, 0xbc,
  0xa5, 0x26, 0x56, 0xbe, 0xc7, 0x67, 0x05, 0xbe, 0xef, 0x42, 0x62, 0xbe,
  0xcd, 0xa0, 0x58, 0xbd, 0x66, 0x25, 0x5a, 0xbc, 0x1e, 0x1b, 0xf5, 0x3b,
  0xac, 0xf5, 0x88, 0x3d, 0x69, 0xbd, 0xcc, 0xbc, 0xf8, 0x7c, 0x4d, 0xbe,
  0xd5, 0xa7, 0x86, 0xbd, 0xe5, 0x71, 0x38, 0xbe, 0xcb, 0x66, 0x4c, 0x3e,
  0xfb, 0x26, 0xc7, 0x3d, 0x74, 0xa8, 0x83, 0x3e, 0x08, 0xfb, 0x62, 0xbd,
  0x92, 0x25, 0xf9, 0x3e, 0x7d, 0x34, 0x09, 0xbe, 0xd7, 0xb8, 0x4f, 0xbb,
  0x7b, 0x21, 0x32, 0xbe, 0xb3, 0x96, 0x39, 0xbe, 0x5c, 0x35, 0x12, 0xbe,
  0x1f, 0x96, 0xcd, 0xbd, 0xb8, 0xc0, 0x22, 0xbe, 0xd5, 0xcc, 0xe6, 0xbd,
  0x98, 0x9e, 0x32, 0xbe, 0x9e, 0x52, 0xbf, 0xbe, 0xdc, 0x0f, 0x6b, 0xbc,
  0xd6, 0x9b, 0x51, 0xbe, 0x92, 0x84, 0xb2, 0xbd, 0x0a, 0xbb, 0x92, 0xbe,
  0xea, 0x09, 0xd2, 0xbd, 0xba, 0xe9, 0x76, 0x3e, 0x0e, 0x14, 0x87, 0xbc,
  0xa8, 0x0f, 0x85, 0xbe, 0x54, 0x2c, 0x36, 0x3e, 0x59, 0x66, 0xbc, 0xbc,
  0x17, 0xb1, 0xa3, 0xbe, 0x2f, 0xc0, 0x76, 0xbe, 0x82, 0x77, 0x67, 0x3e,
  0xb4, 0x20, 0xab, 0xbc, 0x21, 0x57, 0x51, 0xbd, 0xee, 0x6e, 0x77, 0xbe,
  0x84, 0x0a, 0xd8, 0x3d, 0xb8, 0xfe, 0x89, 0xbe, 0xeb, 0xc7, 0x74, 0xbe,
  0xb3, 0x33, 0x1a, 0xbe, 0x52, 0xa8, 0x23, 0xbd, 0x0c, 0x2d, 0xa8, 0x3e,
  0x27, 0x8d, 0x9d, 0x3c, 0xed, 0xec, 0x58, 0xbd, 0x5e, 0x0f, 0x4a, 0xbd,
  0x4a, 0x93, 0x89, 0xbe, 0x9c, 0xb2, 0xe3, 0x3e, 0xeb, 0x02, 0xd8, 0xbd,
  0xc9, 0x0c, 0x66, 0x3e, 0x1f, 0x06, 0x07, 0x3e, 0x34, 0x26, 0x00, 0x3e,
  0xbd, 0xba, 0xcb, 0x3e, 0x2f, 0x14, 0x81, 0xbd, 0xc5, 0x7d, 0x99, 0xbe,
  0x43, 0xaf, 0xab, 0xbd, 0xb6, 0x7a, 0x33, 0xbe, 0xd5, 0x5e, 0x62, 0xbd,
  0x20, 0xad, 0x1b, 0xbe, 0x33, 0x67, 0x71, 0xbd, 0x35, 0x1f, 0xea, 0x3c,
  0x13, 0xb4, 0xfc, 0xbd, 0x94, 0x6c, 0x93, 0xbe, 0x7b, 0x68, 0x26, 0x3e,
  0x7e, 0xb9, 0x0c, 0xbe, 0xfc, 0xe3, 0x99, 0x3e, 0x7e, 0xd7, 0x7d, 0x3d,
  0x84, 0x0d, 0x45, 0x3e, 0x38, 0x3c, 0xf4, 0x3c, 0x84, 0xae, 0x27, 0xbe,
  0x83, 0x93, 0x81, 0x3d, 0x83, 0x34, 0x93, 0xbe, 0xdc, 0xda, 0xe2, 0xbe,
  0xf6, 0x52, 0x95, 0x3d, 0xc9, 0x54, 0x24, 0x3e, 0x71, 0xb6, 0x8d, 0x3e,
  0xa7, 0x9b, 0x57, 0xbe, 0x8a, 0xe3, 0x36, 0x3e, 0x37, 0x67, 0x08, 0xbd,
  0xae, 0x84, 0x8f, 0xbe, 0xc4, 0x59, 0xbc, 0xbe, 0x1e, 0x43, 0xf1, 0x3d,
  0x79, 0xa5, 0xd7, 0x3e, 0xb4, 0x0c, 0x41, 0x3d, 0xfb, 0xc5, 0xe7, 0xbd,
  0x46, 0x55, 0xd0, 0xb8, 0xce, 0xf0, 0x57, 0xbe, 0xc0, 0xb5, 0x4e, 0xbe,
  0x5f, 0x2d, 0x9f, 0xbe, 0x3a, 0x80, 0xc8, 0x3c, 0x5c, 0xe9, 0xd7, 0x3e,
  0x71, 0xe5, 0x00, 0x3e, 0x1c, 0x14, 0x50, 0x3c, 0x7c, 0x33, 0x73, 0xbd,
  0x95, 0xee, 0xbc, 0xbc, 0xff, 0x12, 0xbd, 0xbd, 0x8a, 0x6b, 0xa4, 0xbe,
  0x25, 0x29, 0x30, 0x3e, 0x11, 0x91, 0x78, 0x3e, 0x05, 0x2b, 0x2b, 0xbe,
  0x42, 0x39, 0x76, 0x3d, 0x5d, 0xd0, 0x0a, 0xbd, 0x1e, 0xca, 0x91, 0xbd,
  0x41, 0x7e, 0xf7, 0xbd, 0x1b, 0x73, 0x00, 0x3d, 0x03, 0x65, 0x69, 0xbe,
  0xed, 0x8c, 0x34, 0xbe, 0x2b, 0x3b, 0x9a, 0x3d, 0xf2, 0xee, 0xba, 0x3b,
  0x1d, 0x4c, 0xfa, 0xbd, 0x6f, 0x1b, 0x3c, 0xbc, 0xa2, 0x16, 0xef, 0x3d,
  0x9a, 0x04, 0x9f, 0x3d, 0x4a, 0x78, 0xf1, 0xbd, 0xc1, 0x72, 0xb1, 0x3e,
  0xe1, 0xfc, 0x89, 0x3d, 0x83, 0x33, 0x9d, 0x3d, 0x62, 0x4b, 0x7c, 0x3e,
  0x67, 0x97, 0x38, 0x3d, 0x3e, 0x51, 0x03, 0x3d, 0x0b, 0x07, 0xd4, 0x3d,
  0xb0, 0x35, 0xf6, 0xbc, 0x4e, 0xbe, 0xe4, 0xbd, 0x20, 0x06, 0x36, 0x3c,
  0x3c, 0x69, 0x99, 0x3d, 0xf3, 0xb1, 0x18, 0x3e, 0x9e, 0x5d, 0x3b, 0x3d,
  0x22, 0x93, 0xd7, 0x3d, 0x26, 0x42, 0x82, 0x3c, 0xce, 0x14, 0xb7, 0x3d,
  0x59, 0xda, 0x02, 0xbe, 0xe6, 0x4f, 0x8f, 0xbd, 0xb7, 0xa7, 0x99, 0xbe,
  0xa8, 0xef, 0x1d, 0x3e, 0xdd, 0xcd, 0x11, 0xbd, 0x26, 0x7c, 0x89, 0xbd,
  0x09, 0x22, 0x1a, 0xbe, 0x61, 0x69, 0x10, 0xbe, 0x91, 0xd7, 0x85, 0xbd,
  0xb2, 0xe8, 0x3a, 0xbf, 0xfc, 0xb4, 0x9f, 0xbe, 0xb9, 0xbd, 0x80, 0xbe,
  0x89, 0xe0, 0x01, 0x3d, 0xa6, 0x28, 0x1f, 0xbe, 0xa5, 0xca, 0x08, 0x3d,
  0x40, 0xcf, 0x81, 0x3e, 0x79, 0xb3, 0x20, 0x3e, 0x03, 0xf4, 0x28, 0xbe,
  0x5f, 0xdb, 0x0a, 0x3d, 0xab, 0x92, 0x17, 0xbe, 0x91, 0x05, 0xe3, 0x3d,
  0xf8, 0x1f, 0x69, 0xbd, 0xd1, 0x16, 0x31, 0x3d, 0x3e, 0xd8, 0x07, 0xbd,
  0xde, 0x48, 0xd1, 0xbd, 0x59, 0x02, 0x4e, 0xbe, 0xb3, 0x5a, 0x31, 0x3e,
  0x62, 0x33, 0x4d, 0xbd, 0x4a, 0xa0, 0x0a, 0x3e, 0x62, 0x85, 0x82, 0xbd,
  0xed, 0x0c, 0x5a, 0xbd, 0x71, 0xbc, 0xf8, 0x3d, 0x6a, 0x59, 0x7e, 0x3e,
  0x14, 0x3c, 0xe3, 0xbd, 0x2f, 0x53, 0x45, 0x3d, 0x20, 0xc9, 0xc3, 0x3d,
  0x2e, 0x89, 0x7a, 0xbe, 0x48, 0x27, 0xe2, 0x3d, 0x39, 0x42, 0xb1, 0xbd,
  0x11, 0xe4, 0xa1, 0xbe, 0xea, 0xc5, 0x86, 0x3c, 0x5d, 0xf2, 0x3c, 0x3b,
  0xea, 0x8f, 0x09, 0xbe, 0xc9, 0x5c, 0xea, 0x3d, 0x82, 0x81, 0xed, 0x3d,
  0x78, 0x10, 0x97, 0x3e, 0xee, 0xbf, 0x51, 0x3e, 0x29, 0x57, 0xa6, 0xbd,
  0x79, 0x70, 0x55, 0xbe, 0xa9, 0xf4, 0x26, 0x3e, 0xd6, 0x95, 0x15, 0xbe,
  0x4f, 0x38, 0x13, 0xbe, 0xae, 0x1c, 0x9b, 0xbe, 0xaa, 0xbd, 0x15, 0xbf,
  0xea, 0xee, 0xf6, 0x3d, 0x04, 0x51, 0xcb, 0xbe, 0x39, 0xd0, 0x19, 0xbe,
  0xa0, 0x24, 0xaf, 0xbd, 0xa0, 0x16, 0x73, 0xbe, 0x74, 0x6e, 0x40, 0xbe,
  0x93, 0xcb, 0xcd, 0x3c, 0x72, 0xd2, 0x31, 0xbe, 0xba, 0x7d, 0xbf, 0x3d,
  0x6c, 0xaf, 0xd7, 0xbe, 0xbf, 0x7c, 0x4f, 0xbe, 0x07, 0x00, 0x37, 0x3e,
  0x4c, 0x36, 0xf3, 0xbb, 0x53, 0x48, 0x86, 0xbe, 0xc1, 0x66, 0x88, 0xbe,
  0x45, 0x8e, 0x4d, 0xbd, 0x0a, 0x7c, 0x92, 0xbe, 0xa3, 0x2b, 0x68, 0xbe,
  0x24, 0x3c, 0xca, 0x3d, 0x74, 0xef, 0xb0, 0xbe, 0xf4, 0x39, 0x8f, 0xbe,
  0x49, 0xce, 0x0a, 0xbe, 0xe0, 0x66, 0x30, 0xbe, 0xd8, 0xa9, 0x60, 0xbe,
  0xfa, 0xf3, 0x5b, 0xbe, 0x34, 0x23, 0x8e, 0xbe, 0x6d, 0x30, 0x61, 0xbe,
  0x84, 0xbd, 0xc1, 0xbe, 0x6a, 0x06, 0x0d, 0xbe, 0xe2, 0x03, 0x32, 0xbd,
  0xd3, 0x00, 0x9e, 0xbd, 0x59, 0x64, 0x1c, 0x3d, 0x52, 0xce, 0xd9, 0xba,
  0x37, 0x08, 0xf8, 0xbc, 0xa1, 0xff, 0x10, 0x3e, 0xc8, 0x5a, 0x4e, 0xbd,
  0x9e, 0xa0, 0xdb, 0x3c, 0x6d, 0x40, 0xf1, 0x3c, 0x6e, 0xf6, 0x47, 0x3e,
  0x3c, 0xf9, 0x32, 0xbd, 0x80, 0x5c, 0x57, 0x3e, 0xee, 0xa3, 0xc6, 0x3d,
  0x13, 0xb8, 0x31, 0xbe, 0xc7, 0x69, 0x1c, 0x3e, 0x94, 0x42, 0x83, 0x3e,
  0x2c, 0xae, 0x22, 0x3f, 0x75, 0xe1, 0x31, 0xbd, 0xcf, 0x4f, 0x59, 0xbd,
  0xe2, 0x3f, 0x90, 0xbd, 0x8b, 0x85, 0x81, 0xbd, 0x35, 0xa0, 0xc3, 0xbd,
  0xd0, 0x66, 0x4c, 0xbd, 0xfe, 0xd5, 0x87, 0x3d, 0x68, 0xd9, 0x87, 0x3e,
  0x01, 0xda, 0xd6, 0x3d, 0x06, 0x9f, 0x8f, 0xbd, 0xb5, 0xad, 0x1c, 0xbd,
  0xd0, 0x75, 0x47, 0xbd, 0x4c, 0xc2, 0x95, 0xbe, 0x2a, 0x88, 0xf9, 0x3e,
  0x74, 0x0e, 0x64, 0xbb, 0x45, 0x40, 0x28, 0x3d, 0x0c, 0xcd, 0x6f, 0x3d,
  0xd5, 0x35, 0x9d, 0xbd, 0x12, 0x6b, 0xf8, 0x3d, 0x50, 0x8f, 0x7c, 0xbd,
  0xa6, 0xcc, 0x87, 0xbe, 0xd0, 0x62, 0x99, 0xbd, 0x32, 0xdb, 0xaf, 0x3d,
  0xac, 0x59, 0xa2, 0xbe, 0xb4, 0xb9, 0x10, 0xbe, 0x9f, 0x21, 0xf9, 0x3d,
  0x73, 0x45, 0x86, 0xbd, 0x4e, 0x1f, 0x9d, 0xbe, 0x5b, 0xed, 0xe7, 0x3e,
  0x89, 0x73, 0x71, 0xbe, 0x4c, 0x51, 0x85, 0xbd, 0xba, 0xe3, 0xd9, 0xbe,
  0x63, 0x7f, 0x6f, 0xbd, 0x25, 0xa3, 0xfc, 0xbd, 0xcd, 0xb6, 0x1b, 0x3d,
  0x09, 0x80, 0x15, 0x3c, 0xfb, 0xe8, 0x0f, 0xbe, 0x90, 0xf5, 0x30, 0xbe,
  0x66, 0x22, 0x91, 0xbe, 0x90, 0x19, 0x0d, 0xbe, 0xe3, 0x96, 0x8d, 0x3d,
  0x9f, 0x02, 0xad, 0xbe, 0xb1, 0xc6, 0x9f, 0x3d, 0x8e, 0xa4, 0xfe, 0x3c,
  0x96, 0x81, 0x88, 0x3e, 0x7a, 0xfd, 0xc4, 0xbc, 0xe5, 0x09, 0xb1, 0x3d,
  0x23, 0x23, 0x5f, 0xbd, 0xc7, 0xf9, 0x6c, 0x3d, 0x98, 0xad, 0xad, 0xbe,
  0x10, 0xc1, 0x6e, 0x3d, 0xf4, 0xcb, 0x1d, 0x3e, 0x40, 0x3b, 0xf0, 0xbe,
  0x27, 0x37, 0x11, 0xbd, 0x28, 0xde, 0x75, 0xbd, 0xd2, 0x78, 0xea, 0xbc,
  0x42, 0xdc, 0x89, 0x3e, 0x0a, 0x17, 0x4f, 0xbe, 0x99, 0x47, 0xc7, 0x3d,
  0x9d, 0x3a, 0x17, 0x3e, 0x89, 0x54, 0xb6, 0x3d, 0xd2, 0xd4, 0x1a, 0xbe,
  0x3b, 0x0a, 0xcd, 0xbd, 0xa2, 0xeb, 0xa5, 0xbd, 0xdc, 0x2c, 0x13, 0xbd,
  0x9a, 0xb2, 0x02, 0xbe, 0x05, 0x56, 0x12, 0xbe, 0x9d, 0x79, 0x3c, 0x3d,
  0x51, 0xa7, 0x72, 0xbe, 0x33, 0xda, 0xe1, 0xbd, 0x6b, 0x51, 0x8b, 0xbe,
  0x87, 0xd2, 0xe5, 0xbc, 0x79, 0xb2, 0x67, 0xbe, 0xeb, 0xa1, 0x2e, 0xbe,
  0x25, 0x4b, 0xa9, 0xbe, 0x4d, 0xb4, 0x0b, 0xbe, 0xef, 0xd5, 0xbb, 0xbe,
  0xb1, 0x08, 0xa9, 0xbc, 0x69, 0xec, 0xb2, 0xbe, 0x3a, 0xd5, 0x8c, 0xbc,
  0x4c, 0x59, 0x0c, 0xbc, 0x80, 0x21, 0x10, 0xbe, 0x1d, 0x94, 0xd0, 0x3b,
  0x67, 0xae, 0x47, 0xbe, 0xfa, 0xa0, 0x0e, 0xbf, 0x46, 0x54, 0x3a, 0x3e,
  0x3d, 0x6c, 0x83, 0x3e, 0x1b, 0xdc, 0xdc, 0xbd, 0xe3, 0xeb, 0x0a, 0x3c,
  0xd6, 0xf2, 0x92, 0x3e, 0x31, 0x30, 0xc6, 0x3e, 0xc2, 0x7e, 0x71, 0xbe,
  0x50, 0xcc, 0xa5, 0x3e, 0xa2, 0xbc, 0x6a, 0x3e, 0xc6, 0x40, 0xde, 0x3e,
  0x22, 0x30, 0xd3, 0xbe, 0x19, 0xcb, 0x12, 0x3e, 0xb3, 0x54, 0x74, 0xbe,
  0x69, 0xd5, 0x9c, 0xbd, 0x17, 0x69, 0xd1, 0x3d, 0x9d, 0xd5, 0x9b, 0xbe,
  0x9a, 0xca, 0x1e, 0x3e, 0xb4, 0x5b, 0x78, 0x3e, 0x43, 0x09, 0xb3, 0x3e,
  0xa7, 0xd4, 0x40, 0xbc, 0xa6, 0xf8, 0x2b, 0xbe, 0x54, 0xeb, 0x92, 0xbd,
  0x83, 0xb4, 0xa9, 0x3c, 0x02, 0x50, 0x72, 0xbe, 0xbd, 0xf0, 0x89, 0xbe,
  0xf8, 0x1f, 0xf1, 0xbc, 0xc9, 0xfe, 0x87, 0xbe, 0xe7, 0xe5, 0x6e, 0x3d,
  0xc1, 0xaf, 0xca, 0x3d, 0xad, 0x5f, 0xa3, 0x3c, 0x4a, 0x38, 0x76, 0x3c,
  0xbe, 0x49, 0x19, 0x3b, 0x38, 0xd5, 0x82, 0xbd, 0xd9, 0x97, 0x58, 0x3e,
  0xe9, 0x94, 0xd8, 0xbe, 0xaf, 0x0f, 0x7b, 0xbd, 0x89, 0xa0, 0x96, 0x3d,
  0x73, 0x06, 0x4d, 0x3e, 0x70, 0xa4, 0x42, 0xbe, 0x6a, 0xb0, 0xdb, 0x3e,
  0xdb, 0x4e, 0x76, 0xbe, 0x0b, 0xdc, 0x29, 0xbe, 0x4b, 0xf9, 0x0e, 0xbf,
  0xab, 0x65, 0x57, 0x3c, 0xb0, 0x83, 0x91, 0x3e, 0x9b, 0xc3, 0x36, 0x3c,
  0xbe, 0x3b, 0xc2, 0x3d, 0x9f, 0x13, 0x65, 0xbe, 0xac, 0xc6, 0xc4, 0xbe,
  0xf8, 0x3e, 0x68, 0xbc, 0x0e, 0xc8, 0x57, 0xbe, 0x7c, 0x36, 0x46, 0x3d,
  0x74, 0x4c, 0x01, 0xbe, 0x00, 0x23, 0xee, 0x3d, 0x0f, 0x56, 0x34, 0xbd,
  0x39, 0x9c, 0x11, 0xbe, 0x14, 0x81, 0x85, 0xbe, 0x04, 0x08, 0x96, 0x3e,
  0x89, 0xeb, 0xac, 0x3e, 0x83, 0x0b, 0xfc, 0xbd, 0x6b, 0x51, 0x00, 0xbd,
  0x42, 0xac, 0xaf, 0x3c, 0x79, 0xfd, 0x7e, 0x3e, 0xa0, 0x71, 0x8d, 0xbe,
  0x20, 0x1e, 0x47, 0xbd, 0xd8, 0xf3, 0x7c, 0x3c, 0xef, 0x59, 0x2d, 0xbd,
  0xe3, 0x49, 0xe0, 0xbd, 0x51, 0xda, 0x9c, 0xbd, 0x25, 0x64, 0xf3, 0xbc,
  0xff, 0x39, 0x21, 0xbe, 0xf1, 0x9d, 0x05, 0xbe, 0x94, 0x21, 0xd6, 0xbd,
  0xb8, 0xb1, 0x05, 0xbc, 0x6b, 0xe7, 0x8f, 0xbd, 0x00, 0x29, 0xa4, 0xbe,
  0x43, 0xed, 0x93, 0xbe, 0x83, 0xd1, 0x8d, 0xbe, 0xd7, 0xf1, 0x12, 0xbf,
  0x4a, 0xe0, 0x01, 0xbf, 0x9e, 0x0e, 0x1e, 0x3e, 0x0e, 0xf4, 0x36, 0xbe,
  0x19, 0xca, 0x54, 0xbe, 0x88, 0xee, 0x16, 0xbe, 0x9f, 0x5c, 0x25, 0x3e,
  0x49, 0x3f, 0xb7, 0x3d, 0x7b, 0x7b, 0x25, 0xbf, 0x1e, 0xd1, 0x49, 0x3d,
  0x2f, 0x63, 0x9f, 0x3e, 0x2a, 0x56, 0xda, 0x3d, 0x38, 0xba, 0xcd, 0xbe,
  0x59, 0x69, 0x70, 0xbd, 0xf3, 0x22, 0x29, 0x3e, 0xac, 0x7f, 0xa1, 0x3d,
  0xcd, 0x81, 0x9b, 0xbe, 0x99, 0x41, 0x46, 0x3e, 0xc0, 0x45, 0x85, 0x3e,
  0x1a, 0x48, 0xcf, 0x3d, 0xc3, 0x4d, 0x8d, 0xbe, 0xb2, 0xd3, 0x1c, 0xbc,
  0x50, 0x2e, 0x34, 0x3e, 0xc9, 0xc9, 0xb9, 0x3d, 0xf6, 0xda, 0x1b, 0x3d,
  0x1f, 0xb0, 0x89, 0x3e, 0x32, 0xfa, 0xd4, 0x3d, 0x06, 0x7d, 0x91, 0x3e,
  0x2f, 0xa6, 0x3c, 0x3e, 0x26, 0xde, 0xff, 0xff, 0x10, 0x00, 0x00, 0x00,
  0x0a, 0x00, 0x00, 0x00, 0x1c, 0x00, 0x00, 0x00, 0x38, 0x00, 0x00, 0x00,
  0x04, 0x00, 0x00, 0x00, 0x10, 0x00, 0x00, 0x00, 0x04, 0x00, 0x00, 0x00,
  0x01, 0x00, 0x00, 0x00, 0x08, 0x00, 0x00, 0x00, 0x1a, 0x00, 0x00, 0x00,
  0x73, 0x65, 0x71, 0x75, 0x65, 0x6e, 0x74, 0x69, 0x61, 0x6c, 0x2f, 0x63,
  0x6f, 0x6e, 0x76, 0x32, 0x64, 0x5f, 0x31, 0x2f, 0x43, 0x6f, 0x6e, 0x76,
  0x32, 0x44, 0x00, 0x00, 0x9c, 0xdd, 0xff, 0xff, 0xa6, 0xde, 0xff, 0xff,
  0x04, 0x00, 0x00, 0x00, 0x80, 0x01, 0x00, 0x00, 0xd0, 0x4e, 0x57, 0xbe,
  0xee, 0x0c, 0xd6, 0xbd, 0x99, 0x64, 0xf6, 0x3c, 0x47, 0xcf, 0x47, 0xbd,
  0xf9, 0xa3, 0x78, 0xbd, 0xd4, 0xa4, 0x1f, 0x3d, 0x18, 0x06, 0x04, 0x3a,
  0xf0, 0x4f, 0x0a, 0x3d, 0xf1, 0xa3, 0x1c, 0x3d, 0xef, 0x39, 0xca, 0xbb,
  0xc4, 0x73, 0xdc, 0x3d, 0x5b, 0xdc, 0xdd, 0xbb, 0x7b, 0x25, 0x8e, 0x3c,
  0x93, 0xfe, 0x95, 0x3d, 0x27, 0xf7, 0x86, 0x3e, 0xbb, 0xf1, 0x34, 0x3e,
  0xed, 0x98, 0x6a, 0x3d, 0x35, 0x88, 0x17, 0x3e, 0x12, 0x64, 0x5d, 0x3e,
  0xfc, 0x93, 0x16, 0xbd, 0x15, 0xf6, 0x33, 0x3e, 0x5b, 0x5a, 0xaf, 0xbd,
  0x6a, 0x66, 0xda, 0xbc, 0x79, 0xc2, 0x0f, 0xbd, 0xc8, 0xee, 0xa6, 0xbd,
  0x84, 0x02, 0x53, 0xbc, 0xed, 0xb3, 0xc8, 0x3d, 0x2b, 0xb8, 0x3a, 0xbd,
  0x2b, 0x7b, 0xa0, 0x3d, 0x0a, 0xc7, 0xe0, 0x3d, 0x5e, 0x35, 0x36, 0x3d,
  0x14, 0xd1, 0x08, 0x3e, 0x8e, 0x6b, 0x81, 0x3d, 0x7b, 0xef, 0x80, 0x3d,
  0xbd, 0x2b, 0xf7, 0x3d, 0x7f, 0x91, 0x21, 0x3c, 0x62, 0x7b, 0x1b, 0x3d,
  0x21, 0xc3, 0xc4, 0xbd, 0xad, 0x3d, 0xdb, 0xbc, 0x6f, 0xba, 0x8a, 0x3e,
  0xed, 0x63, 0x02, 0xbe, 0xa8, 0x20, 0xa1, 0xbd, 0x8e, 0x70, 0x88, 0xbe,
  0xec, 0xe6, 0x62, 0x3e, 0xf9, 0x7f, 0x97, 0x3d, 0x8b, 0x69, 0x01, 0x3e,
  0xe4, 0x0f, 0x87, 0xbe, 0x05, 0x80, 0xe2, 0xbd, 0x5c, 0x69, 0xa6, 0x3e,
  0xfe, 0x46, 0x80, 0x3e, 0x12, 0x94, 0xa2, 0x3e, 0x00, 0x9f, 0xab, 0x3e,
  0x88, 0xd1, 0x76, 0xbd, 0x18, 0x15, 0xc9, 0xbe, 0x9f, 0xa1, 0x60, 0xbe,
  0xde, 0x51, 0x85, 0x3d, 0x26, 0xfd, 0x2c, 0x3e, 0x94, 0x22, 0x92, 0xbd,
  0xa2, 0x21, 0x43, 0xbe, 0x32, 0x5b, 0x0f, 0xbe, 0x87, 0xb3, 0x03, 0x3d,
  0x76, 0xb6, 0x04, 0x3d, 0xdd, 0x87, 0xa9, 0xbe, 0xab, 0x72, 0x15, 0xbe,
  0xe2, 0xa4, 0xd4, 0x3d, 0xa5, 0x6b, 0xa5, 0xbe, 0x4b, 0xe5, 0xa7, 0x3e,
  0xa0, 0x9e, 0x46, 0xbe, 0xf5, 0xbe, 0x32, 0x3d, 0xb8, 0x89, 0x4a, 0xbe,
  0xff, 0xc4, 0xd3, 0x3d, 0xae, 0x52, 0x61, 0x3e, 0x28, 0x27, 0x23, 0x3e,
  0x1a, 0xb5, 0x87, 0xbe, 0xae, 0xa1, 0xc2, 0xbd, 0x1d, 0x2f, 0x3e, 0xbe,
  0x04, 0x8d, 0xa2, 0x3d, 0xb2, 0xb9, 0xe5, 0xbd, 0xab, 0x0e, 0xc3, 0xbd,
  0x3e, 0x55, 0x55, 0x3e, 0x51, 0xc7, 0x82, 0x3d, 0xd2, 0xa2, 0x8d, 0x3e,
  0xbb, 0xe4, 0x1a, 0x3e, 0x95, 0x60, 0x42, 0x3e, 0x4e, 0x70, 0x0a, 0x3e,
  0x60, 0xad, 0x25, 0x3e, 0x39, 0x1b, 0xbe, 0x3e, 0x5c, 0x85, 0x4b, 0xbd,
  0x61, 0x81, 0x8e, 0xbd, 0xd8, 0xd8, 0x7b, 0xbe, 0x35, 0x6b, 0x8c, 0xbd,
  0x28, 0xd2, 0xd3, 0xbc, 0x69, 0x05, 0x01, 0xbe, 0xc5, 0x05, 0xf9, 0xbc,
  0xb6, 0x23, 0x4c, 0xbe, 0x04, 0x85, 0x90, 0xbe, 0xfe, 0xdf, 0xff, 0xff,
  0x10, 0x00, 0x00, 0x00, 0x09, 0x00, 0x00, 0x00, 0x1c, 0x00, 0x00, 0x00,
  0x38, 0x00, 0x00, 0x00, 0x04, 0x00, 0x00, 0x00, 0x08, 0x00, 0x00, 0x00,
  0x04, 0x00, 0x00, 0x00, 0x03, 0x00, 0x00, 0x00, 0x01, 0x00, 0x00, 0x00,
  0x18, 0x00, 0x00, 0x00, 0x73, 0x65, 0x71, 0x75, 0x65, 0x6e, 0x74, 0x69,
  0x61, 0x6c, 0x2f, 0x63, 0x6f, 0x6e, 0x76, 0x32, 0x64, 0x2f, 0x43, 0x6f,
  0x6e, 0x76, 0x32, 0x44, 0x00, 0x00, 0x00, 0x00, 0x74, 0xdf, 0xff, 0xff,
  0x7e, 0xe0, 0xff, 0xff, 0x04, 0x00, 0x00, 0x00, 0xc0, 0x00, 0x00, 0x00,
  0x2a, 0x59, 0xb4, 0x3d, 0x59, 0x0a, 0x96, 0xbe, 0xd1, 0x02, 0x5a, 0xbe,
  0x1d, 0x07, 0x12, 0xbe, 0x67, 0xe9, 0xaf, 0x3c, 0x78, 0x1f, 0x7a, 0xbd,
  0x2a, 0xb1, 0x92, 0x3e, 0x74, 0x86, 0x97, 0x3e, 0xc1, 0xa3, 0x2a, 0xbe,
  0x59, 0xf8, 0x25, 0x3e, 0x62, 0x89, 0xca, 0xbe, 0xfd, 0x61, 0xae, 0xbd,
  0x8e, 0xc5, 0x48, 0x3e, 0xf6, 0x6f, 0x71, 0xbe, 0x26, 0x03, 0x9a, 0xbe,
  0x21, 0x17, 0x22, 0xbe, 0xc0, 0x0b, 0x08, 0x3e, 0x64, 0x8f, 0x5b, 0x3e,
  0x17, 0x96, 0x0e, 0xbe, 0x0e, 0xf7, 0x37, 0xbe, 0x2f, 0x18, 0x38, 0x3e,
  0x8e, 0x79, 0xa4, 0x3c, 0xe4, 0x6f, 0xc0, 0x3e, 0xc1, 0x41, 0xa0, 0x3e,
  0xa1, 0xa8, 0xbd, 0x3d, 0xae, 0x23, 0x5a, 0x3e, 0xb2, 0xa5, 0xe5, 0x3b,
  0xcc, 0x94, 0xfb, 0xbd, 0x65, 0x23, 0x23, 0x3e, 0x35, 0xd2, 0x4b, 0x3d,
  0x7d, 0xcc, 0x4c, 0xbe, 0x92, 0x44, 0x0c, 0xbe, 0xa5, 0xb6, 0xba, 0x3d,
  0xeb, 0xb5, 0x22, 0xbe, 0xf5, 0x2b, 0xe7, 0xbd, 0x88, 0x50, 0x40, 0xbe,
  0x20, 0xe4, 0x9e, 0x3c, 0x7e, 0x8f, 0x97, 0xbd, 0xbd, 0x44, 0x10, 0xbd,
  0x6a, 0x01, 0xb0, 0x3e, 0xe6, 0xdd, 0xf5, 0x3d, 0x5c, 0x19, 0x2d, 0x3e,
  0xcf, 0x26, 0x01, 0x3e, 0x0d, 0x7d, 0x1b, 0xbe, 0x21, 0x44, 0xf3, 0x3d,
  0x83, 0xaf, 0x9e, 0x3e, 0x7e, 0xf7, 0x8d, 0xbe, 0x5a, 0xae, 0x70, 0xbe,
  0x16, 0xe1, 0xff, 0xff, 0x10, 0x00, 0x00, 0x00, 0x08, 0x00, 0x00, 0x00,
  0x14, 0x00, 0x00, 0x00, 0x30, 0x00, 0x00, 0x00, 0x02, 0x00, 0x00, 0x00,
  0x03, 0x00, 0x00, 0x00, 0x10, 0x00, 0x00, 0x00, 0x19, 0x00, 0x00, 0x00,
  0x73, 0x65, 0x71, 0x75, 0x65, 0x6e, 0x74, 0x69, 0x61, 0x6c, 0x2f, 0x64,
  0x65, 0x6e, 0x73, 0x65, 0x5f, 0x31, 0x2f, 0x4d, 0x61, 0x74, 0x4d, 0x75,
  0x6c, 0x00, 0x00, 0x00, 0x84, 0xe0, 0xff, 0xff, 0x8e, 0xe1, 0xff, 0xff,
  0x04, 0x00, 0x00, 0x00, 0x00, 0x1c, 0x00, 0x00, 0x9e, 0xcd, 0xcb, 0xbd,
  0x36, 0xe9, 0x57, 0xbc, 0xcb, 0x3c, 0x7f, 0xbe, 0xed, 0xe5, 0xfd, 0x3d,
  0xa3, 0x51, 0x21, 0xbe, 0xd6, 0xdc, 0x5d, 0xbe, 0x2a, 0x0a, 0x0f, 0xbe,
  0xc4, 0x62, 0x36, 0xbe, 0x2e, 0x22, 0xf4, 0xbd, 0x5d, 0x55, 0x93, 0x3d,
  0x74, 0xfe, 0xf2, 0x3d, 0x4f, 0x95, 0x2f, 0xbe, 0xc5, 0xcb, 0x82, 0x3e,
  0x6e, 0x52, 0x84, 0xbd, 0x31, 0xc6, 0x0b, 0xbe, 0xe1, 0xbd, 0xa7, 0x3c,
  0x90, 0xbd, 0x58, 0xbb, 0x7b, 0xbd, 0x2f, 0xbe, 0x1a, 0xa7, 0x4b, 0x3d,
  0x67, 0xeb, 0x56, 0xbe, 0x93, 0x37, 0xe3, 0xbd, 0xc4, 0xee, 0x61, 0xbe,
  0x1e, 0xe0, 0x4a, 0x3c, 0x1e, 0x4a, 0x18, 0x3e, 0x5b, 0x1b, 0xfc, 0xbd,
  0x5e, 0x4c, 0x47, 0x3e, 0x9b, 0xa3, 0x30, 0x3e, 0xc5, 0x66, 0x2e, 0xbd,
  0xed, 0x4f, 0x9b, 0x3e, 0xf5, 0x4d, 0x8a, 0xbd, 0x48, 0xfa, 0x1e, 0xbe,
  0x19, 0x74, 0xb4, 0x3e, 0x29, 0xb1, 0x40, 0x3b, 0xf2, 0xa3, 0x31, 0xbd,
  0x4c, 0xd1, 0x19, 0x3e, 0xfe, 0x70, 0x49, 0xbc, 0x20, 0xe4, 0x62, 0xbd,
  0xe8, 0x56, 0xef, 0x3b, 0xbb, 0xb8, 0x25, 0x3d, 0xc6, 0xad, 0xb2, 0x3c,
  0x7c, 0xfd, 0x25, 0xbe, 0x5b, 0x6d, 0x7b, 0x3c, 0xb5, 0x25, 0x97, 0x3d,
  0x45, 0x06, 0x0a, 0x3d, 0xe9, 0x69, 0x79, 0x3d, 0xcb, 0xfd, 0x5f, 0x3e,
  0x99, 0x2c, 0x2f, 0x3c, 0xed, 0x77, 0xa3, 0x3d, 0x61, 0x46, 0x62, 0xbd,
  0x68, 0x96, 0xe6, 0x3d, 0x91, 0x8e, 0xac, 0xbc, 0x54, 0x7d, 0x3f, 0x3c,
  0xa8, 0x2c, 0x4a, 0x3d, 0x8a, 0x5f, 0x99, 0xbe, 0x9e, 0xda, 0xad, 0x3d,
  0xb6, 0x85, 0x09, 0xbe, 0x19, 0xed, 0x5c, 0x3d, 0x6b, 0xf1, 0xcc, 0x3b,
  0x33, 0xd8, 0x62, 0x3e, 0x48, 0x38, 0xe1, 0x3c, 0x89, 0x24, 0x6c, 0x3e,
  0x6f, 0xf3, 0xb6, 0x3d, 0x97, 0x5d, 0xc8, 0xbd, 0xde, 0xf8, 0x89, 0x3d,
  0x8c, 0x60, 0x91, 0x3d, 0xef, 0x38, 0x44, 0xbd, 0x6d, 0x57, 0xa5, 0x3d,
  0xca, 0x83, 0x42, 0xbe, 0xe9, 0xf9, 0x19, 0x3e, 0x19, 0x08, 0x8e, 0xbe,
  0xd5, 0xc4, 0xc5, 0x3d, 0x8d, 0xf7, 0x90, 0x3e, 0x50, 0x63, 0x8a, 0xbe,
  0x40, 0x11, 0x14, 0x3d, 0x7f, 0x73, 0x7b, 0xbd, 0x21, 0xf1, 0x04, 0x3d,
  0x52, 0x01, 0x0d, 0xbe, 0xfa, 0xd0, 0x06, 0x3e, 0xa0, 0x2c, 0xcd, 0xbc,
  0xa7, 0xdd, 0x39, 0x3e, 0x2a, 0xc1, 0x0a, 0xbe, 0x27, 0xc9, 0x05, 0x3e,
  0x95, 0x40, 0x40, 0xbd, 0x41, 0xb4, 0x81, 0xbe, 0xc7, 0xd6, 0x4e, 0x3e,
  0x44, 0x5c, 0x9f, 0xbe, 0xda, 0xef, 0x2c, 0xbd, 0x55, 0xf7, 0x0d, 0xbe,
  0x79, 0x7b, 0x42, 0xbd, 0xe1, 0xb8, 0x66, 0xbd, 0xfb, 0x87, 0x27, 0xbe,
  0x50, 0x39, 0xd4, 0xbc, 0xda, 0x8a, 0x1f, 0xbd, 0x49, 0x1a, 0xfd, 0xbd,
  0x40, 0xac, 0xc1, 0x3c, 0x05, 0xd2, 0xff, 0xbd, 0xf1, 0x56, 0xa7, 0xbd,
  0xc0, 0x09, 0x31, 0xbe, 0x4b, 0x13, 0xee, 0xbd, 0x24, 0xc5, 0x52, 0x3d,
  0x78, 0x37, 0xa1, 0xbe, 0xdb, 0xbb, 0xe8, 0xbd, 0x34, 0xbf, 0xfd, 0xbc,
  0x3b, 0xde, 0xea, 0xbd, 0x3d, 0xfb, 0x6d, 0xbe, 0x3b, 0x1f, 0x4f, 0xbe,
  0x7a, 0x16, 0x21, 0x3d, 0x7e, 0x6e, 0x97, 0xbd, 0x00, 0x0a, 0xc1, 0xbe,
  0x45, 0x06, 0x6d, 0xbe, 0x67, 0x9e, 0x04, 0x3e, 0x27, 0x2b, 0x69, 0xbe,
  0x82, 0x76, 0x56, 0xbe, 0xb9, 0xb1, 0x77, 0xbe, 0x72, 0x6a, 0x19, 0xbc,
  0x10, 0x04, 0x23, 0xbe, 0x4e, 0x6c, 0x0c, 0xbe, 0x40, 0x8d, 0x01, 0x3d,
  0x09, 0x8c, 0xae, 0xbd, 0x50, 0x6a, 0xc9, 0xbd, 0x4a, 0x05, 0x45, 0xbe,
  0xc5, 0xdb, 0x3a, 0xbe, 0x6f, 0x9a, 0xd1, 0x3d, 0x9e, 0x04, 0x6d, 0xbe,
  0x2c, 0x06, 0xf5, 0xbd, 0x9e, 0x81, 0x09, 0xbe, 0x2e, 0xa2, 0x26, 0xbe,
  0x07, 0x3f, 0x8b, 0x3d, 0x73, 0xe0, 0x68, 0xbe, 0x4a, 0xe9, 0x7a, 0xbe,
  0x0d, 0xa1, 0x13, 0x3e, 0xfa, 0x4e, 0x0b, 0x3e, 0xb3, 0x20, 0x9b, 0xbe,
  0xcf, 0x4d, 0xaa, 0x3d, 0xe8, 0xe8, 0x02, 0xbe, 0x8c, 0x73, 0x69, 0x3d,
  0x03, 0xfb, 0xa6, 0xbd, 0x2b, 0xed, 0x09, 0x3d, 0x8e, 0x33, 0x27, 0x3d,
  0x78, 0x1f, 0x3f, 0xbe, 0x13, 0x47, 0x39, 0xbe, 0x5f, 0x0f, 0x05, 0xbe,
  0x36, 0xe2, 0xde, 0x3d, 0x90, 0xfc, 0x76, 0xbd, 0xe8, 0x82, 0x71, 0xbe,
  0xb8, 0x7c, 0x93, 0x3a, 0x70, 0x4e, 0x16, 0xbe, 0xad, 0x1a, 0x87, 0x3c,
  0xe4, 0x8e, 0x44, 0x3d, 0x50, 0x9a, 0x55, 0xbe, 0xd4, 0x9d, 0x44, 0xbe,
  0x8a, 0xe9, 0x37, 0x3d, 0x4b, 0xa1, 0x87, 0x3d, 0x29, 0xc6, 0x0e, 0xbd,
  0x52, 0x99, 0x5b, 0xbc, 0x34, 0xb8, 0x9c, 0xbd, 0xda, 0xda, 0x2d, 0x3e,
  0x72, 0x03, 0x56, 0xbe, 0x3b, 0x28, 0x0f, 0xbe, 0xbf, 0x48, 0x26, 0xbe,
  0x12, 0xcb, 0x9a, 0xbd, 0x37, 0xeb, 0x1b, 0xbe, 0xeb, 0xd6, 0x35, 0x3d,
  0x7f, 0x22, 0x01, 0xbd, 0x1b, 0xec, 0x17, 0x3d, 0xfd, 0x68, 0xd0, 0x3c,
  0xb0, 0xc1, 0x76, 0xbe, 0xb3, 0x4b, 0x58, 0xbe, 0x21, 0xe1, 0x60, 0xbe,
  0xf9, 0xd6, 0x1e, 0x3d, 0x20, 0xe6, 0xbc, 0xbd, 0x91, 0x3e, 0x9d, 0xbe,
  0x37, 0x41, 0xbd, 0xbd, 0x05, 0x97, 0x78, 0xbe, 0x42, 0x4e, 0x8e, 0x3d,
  0x8f, 0x02, 0x80, 0x3d, 0x9c, 0x88, 0x4f, 0xbe, 0x6d, 0x2d, 0x92, 0xbd,
  0x34, 0x9e, 0x9b, 0x3d, 0x9e, 0xb8, 0x48, 0xbd, 0x0c, 0xba, 0x5f, 0xbd,
  0x17, 0x65, 0x91, 0xbc, 0x01, 0xbb, 0x1b, 0xbe, 0xd7, 0xd7, 0x83, 0xbe,
  0x97, 0x5b, 0x81, 0x3c, 0x67, 0x67, 0x44, 0xbe, 0x9a, 0xb7, 0x03, 0xbe,
  0x17, 0x10, 0x46, 0xbe, 0x0e, 0x0d, 0x5b, 0xbe, 0xde, 0xee, 0x27, 0xbe,
  0xb0, 0x16, 0x89, 0xbe, 0x0e, 0xff, 0xba, 0x3d, 0xf6, 0x94, 0x86, 0xbd,
  0x12, 0x18, 0x17, 0x3e, 0xf9, 0x31, 0xe5, 0x3d, 0x4a, 0xe5, 0x3b, 0xbe,
  0x68, 0xf6, 0x57, 0xbe, 0x50, 0x1d, 0x3b, 0xbe, 0xa7, 0xf0, 0x0e, 0xbe,
  0xfa, 0x45, 0x42, 0x3d, 0x3c, 0x57, 0x87, 0xbd, 0x7c, 0x7d, 0x81, 0x3d,
  0xc7, 0xe8, 0x1f, 0xbe, 0xc4, 0x63, 0xb4, 0xbd, 0xd4, 0x16, 0xf0, 0x3c,
  0xf1, 0x14, 0x8b, 0x3d, 0xab, 0x80, 0x44, 0xbe, 0x54, 0x11, 0xd9, 0x3d,
  0x5c, 0x84, 0x91, 0xbd, 0x24, 0x60, 0x25, 0xbe, 0x30, 0x7b, 0xf3, 0x3d,
  0x44, 0x84, 0x12, 0xbe, 0xfb, 0x7f, 0x88, 0xbe, 0xb9, 0x41, 0x30, 0xbe,
  0xff, 0xcc, 0xcf, 0xbd, 0xa9, 0x2d, 0x87, 0xbd, 0xa7, 0x19, 0x20, 0x3c,
  0xb3, 0xd0, 0xc7, 0x3c, 0x2b, 0xd6, 0x3b, 0xbe, 0x9e, 0x50, 0xfe, 0xbd,
  0xee, 0x9f, 0x33, 0x3d, 0xe3, 0x24, 0x66, 0xbe, 0x66, 0xa7, 0x02, 0xbd,
  0x90, 0xb3, 0xf4, 0xbd, 0x35, 0x60, 0xea, 0xbe, 0xfe, 0x3a, 0x36, 0x3f,
  0x4a, 0xf5, 0x1f, 0x3d, 0x5a, 0xd2, 0x81, 0xbd, 0x87, 0x9e, 0x46, 0x3e,
  0x52, 0x99, 0x3c, 0x3e, 0x09, 0xbd, 0x7c, 0x3d, 0x05, 0xe3, 0x7d, 0xbd,
  0x48, 0x66, 0xb6, 0x3e, 0x52, 0x6e, 0x63, 0xbe, 0xd3, 0xd9, 0x0c, 0xbf,
  0xa3, 0x4a, 0xca, 0x3d, 0xb0, 0x63, 0xa9, 0xbe, 0x16, 0x3a, 0x92, 0xbe,
  0x55, 0x30, 0xd3, 0x3d, 0xce, 0xda, 0x6a, 0x3d, 0xde, 0x41, 0x25, 0xbf,
  0xdc, 0xad, 0x6e, 0x3d, 0xb2, 0x31, 0x5e, 0x3e, 0x77, 0xfa, 0xd4, 0xbe,
  0x2f, 0x86, 0xf0, 0x3d, 0x5e, 0xb4, 0x42, 0x3d, 0x20, 0xeb, 0x22, 0x3c,
  0xd4, 0x90, 0xdf, 0xbc, 0x3a, 0x4d, 0xf0, 0x3e, 0x4b, 0x31, 0x29, 0xbe,
  0x14, 0xf0, 0x20, 0xbe, 0xca, 0xb0, 0x3c, 0xbd, 0x85, 0xbc, 0x6d, 0xbd,
  0xec, 0xcd, 0x68, 0xbe, 0x93, 0x5a, 0x51, 0xbc, 0x1e, 0x6f, 0xba, 0x3c,
  0xd9, 0x72, 0xc0, 0xbe, 0x70, 0xa9, 0x24, 0x3d, 0x7d, 0xc8, 0xb8, 0x3e,
  0xe7, 0xc5, 0x98, 0xbe, 0x37, 0x1e, 0x04, 0x3e, 0x9c, 0xb2, 0x1b, 0x3d,
  0x67, 0xed, 0x6e, 0x3d, 0xca, 0xe7, 0x1c, 0x3d, 0xbd, 0x00, 0x8c, 0x3e,
  0x0f, 0x38, 0x09, 0xbe, 0xb4, 0x90, 0xf8, 0xbd, 0xb2, 0x17, 0x84, 0xbb,
  0xdc, 0x0c, 0xae, 0xbb, 0x2e, 0x4c, 0xa7, 0xbd, 0x5e, 0xd3, 0xdf, 0xbc,
  0xae, 0x40, 0xf7, 0x3d, 0xae, 0x62, 0xf1, 0xbe, 0x0d, 0xab, 0x25, 0x3d,
  0xa2, 0xc4, 0x93, 0x3e, 0x4d, 0x6a, 0x5a, 0x3d, 0xb5, 0xff, 0x04, 0x3e,
  0xb7, 0xd5, 0x37, 0xba, 0xa4, 0x49, 0x0c, 0x3d, 0x08, 0x01, 0x96, 0x3c,
  0x3f, 0x82, 0x59, 0x3d, 0x88, 0x79, 0x43, 0xbd, 0x75, 0x49, 0x29, 0xbe,
  0x2b, 0x1b, 0xfd, 0x3b, 0xf7, 0xd5, 0x85, 0x3d, 0x41, 0xfb, 0x4b, 0xbe,
  0x41, 0x3a, 0x99, 0x3d, 0x2e, 0xfc, 0x09, 0x3d, 0x1f, 0x11, 0xd5, 0xbe,
  0x2e, 0xa3, 0x4f, 0x3e, 0x19, 0xd9, 0x0a, 0x3f, 0x36, 0x70, 0x36, 0xbd,
  0x87, 0xa6, 0x86, 0x3e, 0x9e, 0x20, 0x9a, 0x3c, 0x13, 0x73, 0x2c, 0x3d,
  0xbc, 0x68, 0x89, 0x3d, 0x0f, 0xce, 0x85, 0x3e, 0xc4, 0x96, 0xdb, 0xbd,
  0x54, 0x0f, 0xda, 0xbc, 0x98, 0x51, 0x76, 0x3d, 0xa5, 0x95, 0x66, 0xbe,
  0x36, 0x0b, 0x2c, 0xbe, 0xa2, 0x1e, 0x63, 0x3c, 0x2e, 0xb3, 0x88, 0xba,
  0x56, 0x03, 0x13, 0xbf, 0x34, 0x3a, 0x5e, 0x3e, 0x0c, 0x99, 0x82, 0x3e,
  0xce, 0xf1, 0x4b, 0xbe, 0xb7, 0x17, 0xa1, 0x3e, 0x75, 0x48, 0x0a, 0x3d,
  0xa6, 0x61, 0x69, 0x3c, 0x96, 0xbd, 0xd6, 0xbc, 0x4a, 0xe3, 0xcb, 0x3e,
  0x95, 0x13, 0x74, 0xbe, 0xda, 0x80, 0x14, 0xbe, 0xe9, 0xa8, 0x00, 0xbb,
  0x6e, 0xa7, 0x36, 0xbf, 0x05, 0x92, 0xcb, 0xbe, 0x6f, 0x3a, 0xae, 0x3d,
  0x17, 0x74, 0x8b, 0x3d, 0x69, 0x6f, 0xd0, 0xbd, 0xc3, 0x28, 0xec, 0x3e,
  0x9a, 0x95, 0xe6, 0x3d, 0x10, 0x46, 0xff, 0xbe, 0x65, 0x7a, 0x77, 0xbd,
  0x92, 0x3e, 0x9b, 0x3d, 0xe8, 0x06, 0x9c, 0xbd, 0x89, 0x42, 0x0e, 0x3e,
  0x3e, 0x71, 0x8c, 0x3b, 0x85, 0x4b, 0x92, 0xbe, 0xad, 0x35, 0x17, 0xbd,
  0xc2, 0x8c, 0x35, 0x3e, 0x3c, 0x55, 0x9f, 0xbe, 0x7f, 0x9e, 0x50, 0xbe,
  0xff, 0x5d, 0x7f, 0x3d, 0x58, 0x52, 0x70, 0x3e, 0x24, 0xe3, 0xae, 0xbe,
  0x02, 0xdf, 0x56, 0x3c, 0x32, 0xaa, 0x4f, 0xbc, 0x57, 0xc8, 0x1d, 0xbe,
  0x15, 0x24, 0x70, 0xbd, 0x35, 0x77, 0xe5, 0x3c, 0x11, 0x7b, 0x3a, 0x3c,
  0x79, 0x86, 0xfb, 0xbc, 0xc8, 0x11, 0x39, 0x3c, 0x88, 0x52, 0x7d, 0x3c,
  0x09, 0xbb, 0x99, 0xbe, 0x8a, 0x20, 0x74, 0x3d, 0x2e, 0xb1, 0xa8, 0xbe,
  0xad, 0xf8, 0xfe, 0xbe, 0xfd, 0x08, 0x9c, 0x3d, 0x89, 0x8d, 0xd6, 0xbd,
  0xb3, 0xe8, 0x9f, 0xbe, 0x5b, 0x31, 0x9a, 0x3d, 0x80, 0x1f, 0x5e, 0xbe,
  0x8c, 0x5b, 0xc4, 0xbd, 0x8a, 0x3a, 0xf8, 0xbe, 0x67, 0xd5, 0xfd, 0xbd,
  0xcb, 0xe6, 0x93, 0x3d, 0xae, 0xf6, 0x2e, 0x3d, 0x2e, 0x16, 0x21, 0xbd,
  0xa8, 0xb3, 0xc4, 0xbe, 0x1a, 0x2f, 0x6e, 0xbe, 0x7b, 0xcf, 0x86, 0x3d,
  0x4d, 0x28, 0xe9, 0xbd, 0x90, 0xaf, 0x69, 0xbe, 0xfd, 0x25, 0x74, 0xbc,
  0x78, 0x3f, 0x21, 0xbe, 0xdb, 0x43, 0x3d, 0xbd, 0x7d, 0x6f, 0x34, 0x3d,
  0xd6, 0x2c, 0x4b, 0x3d, 0xe9, 0x86, 0x8d, 0xbe, 0xfc, 0xa4, 0x7e, 0xbe,
  0xd8, 0x14, 0x01, 0xbe, 0x64, 0x15, 0xe6, 0x3c, 0xdb, 0x01, 0xc6, 0x3d,
  0x5d, 0x9c, 0xf7, 0xbd, 0xe1, 0x66, 0xc0, 0xbe, 0xc7, 0xe3, 0xbb, 0x3d,
  0x1f, 0x2c, 0xcc, 0x3d, 0xfd, 0xd7, 0x9b, 0x3d, 0x70, 0x87, 0x4a, 0x3e,
  0x4d, 0x4a, 0x2b, 0x3d, 0x63, 0x3d, 0x6d, 0xbe, 0x92, 0x38, 0x81, 0x3e,
  0xe3, 0x67, 0xdc, 0xbd, 0xeb, 0xb1, 0x60, 0x3e, 0x1b, 0x7e, 0xcf, 0x3d,
  0xb1, 0x8a, 0x10, 0x3d, 0x1f, 0x05, 0x61, 0xbd, 0xd6, 0x56, 0x94, 0xbc,
  0x09, 0x13, 0x36, 0xbc, 0x48, 0x23, 0xd8, 0x3d, 0xb2, 0xdd, 0x32, 0xbf,
  0x19, 0x51, 0x64, 0x3e, 0xd3, 0xf2, 0xa1, 0xbc, 0x88, 0x44, 0x4e, 0xbd,
  0x04, 0x49, 0x8e, 0x3e, 0x75, 0x49, 0x82, 0xbc, 0x5e, 0xcc, 0x34, 0xbe,
  0xb2, 0xda, 0x1c, 0x3f, 0xe2, 0x2f, 0x61, 0xbc, 0xc4, 0x0c, 0x4b, 0xbd,
  0xc3, 0x58, 0x35, 0x3f, 0x33, 0xa6, 0xb3, 0x3d, 0x79, 0xae, 0x24, 0xbe,
  0x45, 0xea, 0x5e, 0xbd, 0x98, 0x1b, 0x14, 0xbd, 0xb4, 0x7a, 0x20, 0x3c,
  0x0e, 0x42, 0x98, 0xbd, 0x83, 0x12, 0xf0, 0x3d, 0x2b, 0x26, 0x29, 0xbd,
  0x80, 0x37, 0x10, 0xbe, 0x43, 0xc8, 0xe9, 0x3d, 0xc8, 0x58, 0x17, 0xbc,
  0xb1, 0x30, 0xc9, 0xbe, 0x24, 0x03, 0xd6, 0x3e, 0x0d, 0x18, 0x8c, 0xbe,
  0x8c, 0xdc, 0xf5, 0x3d, 0xb7, 0xb5, 0x06, 0x3f, 0xeb, 0x5a, 0xa5, 0x3d,
  0x94, 0x04, 0x7e, 0xbc, 0xfb, 0x43, 0xed, 0xbd, 0xdd, 0xef, 0x0e, 0xbe,
  0x8e, 0x28, 0x96, 0xbd, 0xab, 0x5b, 0x7a, 0x3d, 0x2a, 0xbd, 0x18, 0x3e,
  0x2b, 0xfa, 0x73, 0xbd, 0x02, 0xa5, 0x16, 0x3e, 0x5b, 0xb8, 0x9d, 0x3d,
  0x26, 0xab, 0xcd, 0xbd, 0x4d, 0xae, 0x68, 0xbe, 0xb7, 0x7f, 0x05, 0x3e,
  0x6c, 0x8d, 0x68, 0xbe, 0x6d, 0xf0, 0x8c, 0x3e, 0xe8, 0x72, 0xdf, 0x3e,
  0x5d, 0x80, 0xd3, 0xbd, 0x77, 0xfd, 0x23, 0x3d, 0xfc, 0x57, 0x96, 0xbd,
  0x16, 0xcf, 0x97, 0xbe, 0x69, 0xe7, 0x4c, 0xbe, 0xc5, 0x01, 0xfb, 0x3d,
  0x64, 0x8d, 0x04, 0xbc, 0xc9, 0x0c, 0x79, 0xbe, 0x79, 0xc2, 0x26, 0x3d,
  0x11, 0xae, 0x3b, 0x3e, 0x53, 0x51, 0x2a, 0xbe, 0x51, 0x56, 0xd0, 0xbe,
  0xf1, 0x39, 0xbd, 0xbd, 0xd7, 0x3a, 0x34, 0xbd, 0xef, 0x31, 0xaa, 0xbd,
  0x4b, 0x70, 0x0c, 0x3d, 0x71, 0x68, 0xa7, 0xbe, 0xbe, 0xe8, 0xbc, 0xbe,
  0xff, 0x6b, 0x8b, 0xbe, 0x08, 0x09, 0xc8, 0xbe, 0x0c, 0x82, 0x0f, 0xbd,
  0x30, 0x9c, 0xba, 0xbe, 0x5a, 0xea, 0xa2, 0x3c, 0x7a, 0xfa, 0x0a, 0xbe,
  0x16, 0xb1, 0x20, 0xbe, 0x2a, 0x00, 0xd7, 0xbe, 0x48, 0x2e, 0xbe, 0xbe,
  0x10, 0x25, 0x6b, 0xbe, 0x4a, 0xfd, 0xef, 0xbb, 0xdb, 0xda, 0xd8, 0xbd,
  0x49, 0xa0, 0xe2, 0x3d, 0x8c, 0x29, 0x6a, 0x3e, 0x81, 0xd7, 0x94, 0xbe,
  0x7f, 0x7b, 0x27, 0xbe, 0xf4, 0x6f, 0x06, 0xbf, 0x55, 0x4b, 0x40, 0x3e,
  0xb3, 0x62, 0x56, 0xbe, 0xd0, 0x51, 0xe0, 0x3d, 0x85, 0xee, 0x6d, 0xbd,
  0xb8, 0x15, 0x2f, 0xbe, 0x80, 0x9c, 0xd8, 0x3d, 0x3d, 0xea, 0xaf, 0xbe,
  0xf2, 0xeb, 0x01, 0xbe, 0x11, 0xe2, 0x45, 0xbe, 0x91, 0xb8, 0x9f, 0x3d,
  0xbb, 0xec, 0x31, 0x3e, 0x63, 0x97, 0x3a, 0x3e, 0xc4, 0x8d, 0xea, 0xbd,
  0x6d, 0xb7, 0x79, 0xbe, 0x76, 0x84, 0xe4, 0xbd, 0xac, 0x45, 0x55, 0xbe,
  0x14, 0x9a, 0x77, 0x3e, 0x52, 0xc4, 0xdd, 0x3d, 0xcc, 0xf6, 0x57, 0x3d,
  0x61, 0x4a, 0x94, 0xbd, 0xa8, 0x67, 0x4b, 0xbe, 0x5d, 0xf6, 0xb6, 0x3d,
  0xe7, 0xec, 0xb0, 0x3d, 0xfd, 0x87, 0x4d, 0xbe, 0x52, 0xd2, 0x6b, 0xbe,
  0x49, 0x58, 0x82, 0x3d, 0x19, 0xc9, 0xb1, 0x3d, 0x7a, 0xb8, 0x4d, 0xbe,
  0xd1, 0xcf, 0x85, 0xbd, 0x53, 0x88, 0xb9, 0xbe, 0x94, 0x56, 0x8e, 0x3c,
  0xb7, 0xe1, 0x35, 0xbe, 0x08, 0xc6, 0x3c, 0xbe, 0x5d, 0x10, 0xb7, 0xbd,
  0xd7, 0x7d, 0xe2, 0x3d, 0x45, 0x87, 0xbe, 0x3d, 0xd9, 0xf5, 0xb4, 0xbe,
  0x93, 0x37, 0x9e, 0x3e, 0x5c, 0x25, 0x68, 0xbd, 0xfd, 0xdb, 0x91, 0xbd,
  0xed, 0x10, 0xfc, 0xbb, 0xd7, 0xa6, 0xd5, 0xbd, 0xda, 0x82, 0xc4, 0xbd,
  0x52, 0xc6, 0xc7, 0x3d, 0x22, 0x93, 0x67, 0xbe, 0xc8, 0xd4, 0x1f, 0xbe,
  0xc8, 0x40, 0x0b, 0xbe, 0x2f, 0xe4, 0x0a, 0xbd, 0x24, 0x39, 0x09, 0x3d,
  0xb8, 0x42, 0xf4, 0x3c, 0x53, 0xc9, 0x00, 0xbd, 0x31, 0x86, 0x6e, 0x3e,
  0x2a, 0x5e, 0xc7, 0xbe, 0x88, 0xcc, 0x61, 0x3e, 0xdb, 0xf7, 0x76, 0x3e,
  0xf7, 0xb5, 0x14, 0xbe, 0xe2, 0x69, 0x72, 0x3e, 0x23, 0x9d, 0x7a, 0xbd,
  0x98, 0xf1, 0x00, 0xbe, 0x1d, 0x64, 0x2b, 0x3e, 0x48, 0xa4, 0x0a, 0xbd,
  0x7a, 0x3c, 0x14, 0x3e, 0x3e, 0xe6, 0x9e, 0xbe, 0xe8, 0x08, 0xc8, 0x3c,
  0x0b, 0xb5, 0x1c, 0x3d, 0xb9, 0x72, 0xd5, 0x3d, 0xa1, 0x4c, 0x40, 0xbc,
  0x8d, 0x43, 0xfa, 0x3d, 0x04, 0xf2, 0x74, 0xbe, 0x2e, 0xe0, 0x00, 0x3e,
  0x8b, 0xa1, 0xdc, 0x3d, 0xbe, 0xa4, 0x94, 0xbe, 0xc4, 0x9a, 0x15, 0x3e,
  0x29, 0x62, 0xd1, 0x3c, 0x7c, 0xdb, 0x23, 0xbe, 0x80, 0x42, 0x1f, 0xbe,
  0x08, 0xc1, 0xa5, 0x3c, 0xbb, 0x66, 0xea, 0xbc, 0x41, 0xd4, 0x6e, 0xbe,
  0xc6, 0xa8, 0x2f, 0x3e, 0x4a, 0x36, 0x66, 0xbd, 0x73, 0x77, 0x82, 0x3d,
  0xe6, 0x9b, 0x5c, 0xbe, 0x8d, 0x24, 0xba, 0x3d, 0xd6, 0x59, 0xa5, 0xbd,
  0xf4, 0x37, 0x3b, 0x3d, 0x4f, 0x8e, 0x5a, 0x3d, 0x43, 0x2c, 0x3c, 0xbd,
  0x29, 0x51, 0xd9, 0x3d, 0xf1, 0x7e, 0x84, 0xbe, 0x47, 0xa4, 0x64, 0xbe,
  0xbc, 0x25, 0x4a, 0xbe, 0xf4, 0xf5, 0xb2, 0xbd, 0x80, 0x5b, 0xca, 0xbe,
  0xa0, 0x8b, 0x75, 0xbb, 0x73, 0xef, 0x1a, 0xbe, 0xae, 0x8d, 0x5f, 0xbe,
  0x65, 0x7b, 0x4b, 0xbe, 0xe4, 0xd3, 0xa8, 0xbe, 0xad, 0xd1, 0x10, 0xbe,
  0x31, 0x6e, 0x10, 0xbd, 0xcd, 0xb0, 0x60, 0xbc, 0x76, 0xa5, 0x24, 0xbf,
  0x04, 0x26, 0xfa, 0xbe, 0x6c, 0xc3, 0xd3, 0xbe, 0x25, 0x29, 0x30, 0xbe,
  0xdf, 0x94, 0xa5, 0xbe, 0x1e, 0x00, 0x33, 0x3c, 0xd5, 0x7e, 0x9e, 0x3d,
  0x1b, 0x89, 0xbe, 0xbe, 0x0f, 0x28, 0xe7, 0xbd, 0xd5, 0xdb, 0xe9, 0xbe,
  0x08, 0xda, 0xbb, 0x3d, 0x5c, 0x0e, 0xa5, 0x3d, 0x54, 0x0d, 0x0b, 0x3e,
  0x9f, 0x0d, 0x58, 0xbe, 0x07, 0xc3, 0x54, 0xbd, 0x0a, 0x28, 0x76, 0x3e,
  0x27, 0x84, 0xd0, 0xbe, 0x9e, 0x8a, 0xcb, 0x3d, 0x37, 0x73, 0x96, 0xbe,
  0x02, 0x62, 0x33, 0xbc, 0xd5, 0x42, 0x29, 0x3d, 0x83, 0x77, 0x19, 0x3e,
  0xd7, 0x47, 0x8a, 0xbd, 0x35, 0x2c, 0xeb, 0xbe, 0x9f, 0x5e, 0xf6, 0x3c,
  0xa7, 0x3a, 0x95, 0xbe, 0x76, 0x8f, 0x9e, 0x3d, 0x90, 0x2a, 0x8a, 0xbc,
  0x4d, 0x77, 0xc9, 0x3d, 0x8c, 0xc3, 0xb6, 0xbd, 0xdf, 0x9d, 0x9a, 0xbe,
  0x0e, 0x62, 0xf9, 0x3d, 0xdc, 0xbe, 0x96, 0xbe, 0x98, 0x03, 0x19, 0xbe,
  0x67, 0x67, 0xc9, 0xbe, 0x29, 0xa6, 0x1e, 0xbe, 0x5b, 0x61, 0x85, 0xbe,
  0xa1, 0x5c, 0x23, 0x3d, 0x10, 0xd8, 0x35, 0x3a, 0x45, 0x54, 0xb9, 0xbe,
  0x7a, 0x59, 0xe1, 0xbd, 0xbf, 0xf5, 0x34, 0xbe, 0x9b, 0x9e, 0xf1, 0xbd,
  0xfd, 0x73, 0x8c, 0x3d, 0xf9, 0x1e, 0x53, 0x3e, 0x1d, 0xa9, 0xd2, 0x3d,
  0xc5, 0xc9, 0xf3, 0xbb, 0xc9, 0x86, 0xff, 0x3d, 0x46, 0xa5, 0x39, 0xbd,
  0xbd, 0xa7, 0xda, 0xbd, 0x49, 0xb4, 0x4e, 0xbe, 0x6f, 0x1c, 0xaf, 0xbd,
  0x8e, 0x8d, 0x19, 0xbd, 0x61, 0xa1, 0xbc, 0xbc, 0x0d, 0x55, 0x85, 0xbe,
  0xc8, 0xc5, 0x75, 0xbd, 0x99, 0xc5, 0xdd, 0x3c, 0x49, 0x6c, 0x64, 0xbd,
  0xe6, 0xdb, 0x8f, 0x3b, 0x78, 0x9c, 0x52, 0xbe, 0x60, 0xbc, 0x7d, 0xbd,
  0x61, 0xab, 0x1d, 0x3e, 0x9d, 0x89, 0x4e, 0xbe, 0xe5, 0x3d, 0x77, 0x3e,
  0x41, 0x46, 0x72, 0x3c, 0x89, 0x4f, 0x23, 0xbe, 0x0a, 0x69, 0x8b, 0x3e,
  0x1c, 0x65, 0xfb, 0xbd, 0xfb, 0x50, 0x23, 0x3d, 0xee, 0x25, 0x7f, 0x3d,
  0xd2, 0x47, 0x1f, 0xbd, 0x85, 0xb5, 0xdf, 0x3d, 0x06, 0xd4, 0x4f, 0xbd,
  0x20, 0xbe, 0x3a, 0x3e, 0x77, 0x20, 0x28, 0x3e, 0x90, 0x17, 0x43, 0x3b,
  0x05, 0xa1, 0x03, 0x3e, 0x0f, 0x10, 0xb5, 0x3d, 0x9c, 0x3d, 0x1e, 0xbe,
  0xf9, 0x2b, 0x39, 0x3e, 0x9d, 0x29, 0x3c, 0x3d, 0xe7, 0x10, 0x7a, 0xbd,
  0xc7, 0x9f, 0x0a, 0x3e, 0xaa, 0x34, 0x5f, 0xbd, 0xc3, 0x48, 0xe0, 0xbd,
  0xc8, 0x5d, 0x00, 0x3d, 0x93, 0x05, 0x17, 0xbe, 0xc1, 0x5f, 0x4e, 0x3e,
  0x70, 0x67, 0x97, 0xbe, 0x4a, 0xb1, 0x94, 0x3e, 0x54, 0x32, 0x38, 0x3e,
  0xee, 0x43, 0xa5, 0x3d, 0x0f, 0xc6, 0x76, 0x3d, 0x7d, 0x5a, 0x7f, 0x3d,
  0xc3, 0xed, 0x74, 0x3e, 0x0e, 0x45, 0x4c, 0x3e, 0x4b, 0x64, 0xe2, 0x3c,
  0xc4, 0xdf, 0xa7, 0x3e, 0xde, 0xea, 0x81, 0x3e, 0x19, 0xca, 0xab, 0xbd,
  0x58, 0xc7, 0xdd, 0xbd, 0x02, 0xaa, 0x35, 0xbe, 0xcd, 0x8a, 0xcc, 0xbd,
  0x77, 0x5f, 0x21, 0xbe, 0xd8, 0xeb, 0x03, 0xbe, 0x31, 0x5f, 0x5b, 0xbe,
  0x45, 0xe2, 0x67, 0xbe, 0xea, 0xaf, 0x03, 0xbe, 0x1b, 0x4d, 0x1e, 0xbe,
  0xb8, 0xc2, 0x24, 0xbd, 0xc9, 0xd6, 0x35, 0xbe, 0x51, 0xa3, 0x2e, 0xbe,
  0x26, 0xd2, 0x8a, 0xbe, 0x81, 0xfc, 0x1f, 0xbe, 0x16, 0x2e, 0x14, 0xbe,
  0xc2, 0xec, 0xc1, 0xbd, 0x39, 0x21, 0x76, 0x3e, 0x00, 0x29, 0x19, 0x3f,
  0xce, 0x44, 0x3e, 0x3f, 0x0f, 0xb5, 0xec, 0xbd, 0xab, 0xe4, 0x3b, 0xbe,
  0x13, 0x48, 0xb7, 0xbe, 0x79, 0xfd, 0x19, 0x3d, 0xfd, 0xbe, 0xf2, 0xbd,
  0xab, 0xbb, 0xda, 0x3e, 0xfd, 0xfa, 0xab, 0xbd, 0x90, 0xa8, 0xd3, 0x3c,
  0x16, 0x97, 0xf6, 0x3d, 0xc0, 0x9b, 0x64, 0xbd, 0x9d, 0x05, 0x94, 0x3d,
  0x08, 0x57, 0x7b, 0xbe, 0x6b, 0x14, 0x27, 0xbe, 0x9c, 0xd0, 0x1a, 0x3e,
  0xc3, 0xb9, 0x19, 0x3f, 0xf0, 0xe5, 0xd4, 0x3e, 0xb6, 0xc9, 0x6b, 0xbd,
  0x17, 0x17, 0x02, 0xbe, 0xeb, 0xe7, 0xd3, 0xbe, 0xbb, 0xf7, 0xeb, 0x3d,
  0x4f, 0xeb, 0xdb, 0x3d, 0x7b, 0xf8, 0x21, 0x3e, 0x2f, 0x99, 0x40, 0x3d,
  0x7a, 0x08, 0x45, 0xbb, 0x2b, 0xa0, 0x49, 0x3e, 0xaf, 0x6d, 0x99, 0xbe,
  0x29, 0x5c, 0x2b, 0x3d, 0x08, 0xfc, 0x3c, 0xbe, 0xf5, 0x38, 0xd6, 0x3c,
  0x52, 0xe4, 0x09, 0x3e, 0x01, 0x77, 0x11, 0x3f, 0xa3, 0xea, 0xb0, 0x3e,
  0x3c, 0xe0, 0x24, 0xbe, 0x5f, 0x3d, 0x66, 0xbd, 0xee, 0x7b, 0x8a, 0xbe,
  0xdc, 0xe0, 0xfe, 0x3b, 0xd4, 0x85, 0xd4, 0x3c, 0x21, 0xaa, 0x8a, 0x3e,
  0xe2, 0x46, 0x77, 0xbe, 0x91, 0x97, 0x2f, 0xbe, 0xe6, 0x47, 0x6e, 0x3e,
  0x15, 0x78, 0x93, 0xbe, 0x53, 0x26, 0x65, 0xbd, 0x7c, 0x92, 0x93, 0xbd,
  0x73, 0xf3, 0x47, 0xbe, 0x68, 0x6f, 0xb3, 0x3d, 0xf1, 0xcc, 0xb8, 0x3e,
  0x84, 0x53, 0x66, 0xbd, 0x8a, 0xff, 0x8c, 0xbe, 0xd3, 0xa8, 0x0e, 0xbe,
  0x7a, 0xff, 0x13, 0xbe, 0x00, 0x9f, 0x25, 0xbe, 0x9c, 0xd8, 0x2d, 0xbd,
  0x71, 0x43, 0x0b, 0x3d, 0x1b, 0x87, 0x06, 0x3e, 0xbb, 0xcb, 0x97, 0xbe,
  0x1c, 0x6c, 0x0f, 0x3e, 0xbf, 0x29, 0x8c, 0xbd, 0x92, 0x79, 0x39, 0xbe,
  0xf0, 0xd1, 0x93, 0x3d, 0x82, 0x01, 0xaf, 0xbd, 0xe9, 0x5d, 0xff, 0xbb,
  0x66, 0x3c, 0x7f, 0x3e, 0x61, 0x94, 0x04, 0xbd, 0xcc, 0xe0, 0x3f, 0x3d,
  0x45, 0x4f, 0x9d, 0x3c, 0x7d, 0x2b, 0x0b, 0x3e, 0x3c, 0x71, 0x12, 0x3e,
  0x8a, 0x7b, 0x8b, 0x3d, 0x45, 0xb7, 0x7c, 0x3e, 0x91, 0x0e, 0x1b, 0x3e,
  0xec, 0xc3, 0xa3, 0xbe, 0x9d, 0xb9, 0x8e, 0x3e, 0x65, 0xb5, 0x2a, 0x3e,
  0x8c, 0x64, 0x1b, 0xbe, 0x20, 0xe7, 0x1c, 0x3e, 0x4a, 0x48, 0x4a, 0xbd,
  0x5c, 0xed, 0xfd, 0x3e, 0x4d, 0x80, 0xaf, 0x3d, 0xc5, 0xb9, 0xc1, 0x3d,
  0xf7, 0xfd, 0x38, 0x3e, 0x40, 0x58, 0x61, 0xbe, 0xf3, 0x15, 0x3b, 0xbe,
  0x60, 0x4f, 0xc6, 0x3d, 0x5f, 0x10, 0xb9, 0x3e, 0xe7, 0x58, 0x06, 0x3e,
  0x8d, 0x8a, 0x96, 0x3d, 0x4f, 0x4b, 0xb7, 0x3e, 0xfe, 0x2c, 0x9b, 0x3e,
  0xb8, 0x50, 0xbe, 0xbd, 0x49, 0x64, 0x28, 0x3d, 0x32, 0x84, 0x2b, 0x3e,
  0x9c, 0x49, 0x9e, 0xbe, 0x42, 0x87, 0x2d, 0x3f, 0x8b, 0xb3, 0xe1, 0x3d,
  0x70, 0x87, 0x5b, 0xbe, 0xcb, 0xa0, 0x60, 0x3e, 0x10, 0x4a, 0x98, 0x3e,
  0x25, 0x18, 0x05, 0x3d, 0xe5, 0x71, 0x17, 0xbd, 0x60, 0xbb, 0xbf, 0x3e,
  0x93, 0x6e, 0xa0, 0xbe, 0x4b, 0x1e, 0x09, 0xbf, 0xcd, 0xa7, 0x88, 0x3d,
  0x77, 0xb3, 0x65, 0xbe, 0x49, 0x3a, 0xf1, 0xbd, 0x3d, 0x78, 0xf1, 0xbb,
  0x65, 0xb8, 0x15, 0x3e, 0xf1, 0xb6, 0x04, 0xbf, 0xf0, 0x8f, 0x56, 0x3e,
  0x61, 0x28, 0x8d, 0x3e, 0x3f, 0xf3, 0xd1, 0xbe, 0x21, 0xec, 0x0b, 0xbc,
  0x6b, 0xa6, 0xfa, 0x3d, 0xd0, 0x42, 0x5d, 0xbb, 0xd4, 0xae, 0xab, 0x3d,
  0xba, 0xe0, 0x3c, 0x3e, 0x10, 0xb6, 0xae, 0xbe, 0x85, 0x67, 0x13, 0xbe,
  0x6f, 0x8f, 0x68, 0xbb, 0x60, 0x6f, 0x17, 0xbd, 0xa2, 0x5e, 0x3c, 0xbe,
  0x3c, 0xfc, 0x81, 0x3d, 0x7b, 0xde, 0x0c, 0xbc, 0xaa, 0xef, 0x9f, 0xbe,
  0xed, 0x42, 0x29, 0xbb, 0xc3, 0xaf, 0x08, 0x3f, 0x5e, 0x98, 0x47, 0xbe,
  0x96, 0xcf, 0x93, 0x3d, 0xce, 0xd0, 0xcc, 0x3d, 0x80, 0x22, 0x01, 0xba,
  0x1e, 0x21, 0x41, 0xbc, 0x9a, 0x09, 0x4e, 0x3e, 0xe1, 0x0c, 0x7e, 0xbe,
  0x83, 0xe5, 0xb8, 0xbd, 0xc7, 0xcd, 0xad, 0xbb, 0x88, 0xe8, 0x3f, 0xbe,
  0xfd, 0xaf, 0x7c, 0xbc, 0xea, 0x67, 0x8f, 0xbc, 0x0a, 0xc3, 0xd2, 0x3d,
  0x99, 0x9e, 0x88, 0xbe, 0x8a, 0xec, 0xbd, 0x3c, 0x59, 0xfc, 0x43, 0x3e,
  0x7f, 0x79, 0x05, 0xbd, 0x65, 0x8b, 0xe6, 0x3a, 0x30, 0xda, 0xde, 0x3d,
  0xe5, 0xd8, 0xe7, 0x3c, 0x11, 0xf0, 0x36, 0x3d, 0xee, 0x7d, 0xb2, 0x3d,
  0xee, 0x6c, 0x5d, 0xbe, 0xa1, 0x0a, 0x26, 0x3d, 0xca, 0x1e, 0x37, 0xbd,
  0xe4, 0x7f, 0xec, 0x3c, 0x85, 0x8f, 0xe5, 0xbd, 0x6e, 0xa7, 0xc6, 0x3d,
  0x4a, 0x76, 0x76, 0x3d, 0x8d, 0xc6, 0x81, 0xbe, 0x23, 0x56, 0xf8, 0xbc,
  0xbb, 0x7f, 0xd0, 0x3e, 0x52, 0x87, 0x34, 0xbe, 0xb3, 0x78, 0x33, 0x3d,
  0x13, 0x5d, 0xdb, 0x3d, 0xd3, 0x46, 0xb9, 0x3c, 0x3e, 0x16, 0xab, 0x3b,
  0x1f, 0x52, 0x52, 0x3e, 0xf8, 0x80, 0x88, 0xbe, 0xdc, 0xe2, 0x4a, 0xbb,
  0xfd, 0xb9, 0x51, 0x3c, 0x5e, 0x07, 0x42, 0xbe, 0xb6, 0xc4, 0x0f, 0xbe,
  0x21, 0x0b, 0xc6, 0x3d, 0x2e, 0x71, 0xad, 0xbc, 0x00, 0xdd, 0x03, 0xbf,
  0x38, 0xa6, 0x1c, 0x3e, 0x53, 0x0d, 0x9d, 0x3e, 0xbb, 0x65, 0x0f, 0xbe,
  0x0e, 0x20, 0xb9, 0x3d, 0x81, 0x3a, 0xa6, 0x3d, 0x6e, 0xc1, 0x36, 0xbd,
  0x7e, 0x3b, 0xf0, 0x3c, 0x26, 0x46, 0x71, 0x3e, 0xb1, 0x2e, 0xe3, 0xbe,
  0x36, 0x64, 0x99, 0xbe, 0xb9, 0x27, 0xc3, 0xbc, 0xb0, 0x22, 0x08, 0xbf,
  0x5c, 0xb7, 0x49, 0xbe, 0x6a, 0x52, 0xa2, 0x3c, 0x8d, 0xed, 0xbb, 0x3d,
  0x50, 0x8e, 0xcd, 0x39, 0x9b, 0x52, 0x8c, 0x3e, 0xf8, 0xa8, 0x86, 0x3d,
  0x10, 0x2e, 0x08, 0xbf, 0x74, 0x74, 0xec, 0xbc, 0x60, 0xf5, 0xaa, 0x3c,
  0xb3, 0x9f, 0xb2, 0xbd, 0x9f, 0x6e, 0x4a, 0x3e, 0xb4, 0x4d, 0xc0, 0x3d,
  0xe1, 0x8e, 0xe3, 0xbe, 0xa4, 0xd7, 0xfd, 0xbd, 0x60, 0x5d, 0x4f, 0x3e,
  0x03, 0x4d, 0xfd, 0xbe, 0x32, 0x36, 0x46, 0xbe, 0xbf, 0x44, 0x91, 0x3d,
  0x63, 0xc4, 0x09, 0x3d, 0xdf, 0x6a, 0x36, 0xbd, 0x40, 0x8d, 0x27, 0x3f,
  0xbc, 0x18, 0x06, 0xbe, 0xa0, 0x56, 0xed, 0xbd, 0xc2, 0x46, 0x04, 0x3f,
  0x4a, 0x3e, 0xc6, 0x3d, 0xdf, 0x06, 0x52, 0xbe, 0x92, 0x57, 0x92, 0xbe,
  0x38, 0x0e, 0x08, 0x3f, 0x21, 0x76, 0xbd, 0xbe, 0xd7, 0xdf, 0x2e, 0xbe,
  0x1e, 0xf4, 0x90, 0xbe, 0x34, 0x6f, 0x68, 0xbe, 0xd2, 0x0b, 0xcd, 0xbd,
  0x77, 0xe9, 0x1e, 0xbe, 0xbd, 0x8b, 0x16, 0x3d, 0x48, 0x17, 0x96, 0x3c,
  0x58, 0x44, 0x9e, 0x3e, 0x07, 0x80, 0x1e, 0x3e, 0x28, 0xb8, 0x05, 0x3d,
  0x65, 0xdc, 0x0f, 0x3e, 0x79, 0x99, 0x6c, 0x3d, 0xdd, 0x8c, 0x24, 0xbe,
  0x14, 0xcd, 0x52, 0x3e, 0x41, 0x91, 0xb1, 0x3e, 0x66, 0x34, 0xc5, 0xbe,
  0xaa, 0x98, 0xf7, 0xbd, 0xbe, 0x74, 0x5e, 0x3d, 0x2f, 0x14, 0xaa, 0x3d,
  0x70, 0x75, 0x78, 0xbd, 0x3e, 0x4b, 0xad, 0xbd, 0xa5, 0xf6, 0x26, 0x3d,
  0x01, 0x4b, 0x97, 0xbe, 0xdc, 0x48, 0x61, 0x3e, 0x95, 0x96, 0x53, 0x3e,
  0x94, 0x70, 0x32, 0xbc, 0x49, 0xb6, 0x77, 0x3e, 0xb5, 0x99, 0xc6, 0x3d,
  0x77, 0x73, 0x60, 0xbe, 0x55, 0x96, 0x33, 0xbe, 0x00, 0x88, 0x38, 0x3e,
  0x05, 0x02, 0x36, 0xbd, 0x29, 0x9c, 0xf6, 0xbd, 0x9e, 0xd3, 0x8a, 0xbd,
  0xc3, 0x01, 0x9c, 0x3e, 0x8a, 0xc9, 0xbf, 0x3d, 0xf2, 0x21, 0x93, 0xbd,
  0x9d, 0x01, 0x03, 0x3e, 0x01, 0x7b, 0x02, 0x3e, 0xf6, 0x00, 0x93, 0x3e,
  0x7f, 0xb3, 0xfb, 0x3b, 0xe9, 0x9c, 0xf8, 0x3e, 0x1a, 0xd4, 0xeb, 0x3d,
  0xa4, 0x1b, 0x86, 0x3e, 0xb2, 0x60, 0x1f, 0xbe, 0x79, 0x27, 0xea, 0xbb,
  0x57, 0xdc, 0x08, 0xbe, 0x31, 0x37, 0x5c, 0xbe, 0xfa, 0xf8, 0xcf, 0xbc,
  0x7b, 0x47, 0x49, 0x3e, 0x1f, 0x61, 0xbc, 0x3e, 0xfd, 0x6b, 0xa7, 0x3c,
  0x85, 0xa6, 0xbd, 0x3d, 0x2d, 0xb2, 0x8e, 0x3d, 0x52, 0xf1, 0xa8, 0x3d,
  0xda, 0xe3, 0x0a, 0x3d, 0x8b, 0xc0, 0xa1, 0xbd, 0xc3, 0x47, 0x20, 0xbe,
  0x61, 0x0b, 0x99, 0x3e, 0xb1, 0x05, 0x95, 0x3e, 0x84, 0xd8, 0xf6, 0xbc,
  0xcd, 0x6d, 0xd5, 0x3d, 0xe5, 0x0e, 0x7b, 0x3e, 0xfe, 0xb1, 0xb9, 0x3d,
  0xfb, 0xd5, 0x59, 0x3c, 0x5f, 0x96, 0xca, 0xbd, 0x5f, 0x1c, 0x8d, 0x3d,
  0xf3, 0x4d, 0x53, 0x3d, 0x59, 0xd6, 0x25, 0x3d, 0x64, 0x9a, 0xd3, 0x3d,
  0xde, 0xa6, 0x9a, 0xbc, 0x35, 0x96, 0x94, 0x3e, 0x8b, 0xfe, 0xaa, 0x3e,
  0x95, 0xf2, 0x15, 0x3e, 0xd7, 0xa2, 0x8a, 0x3d, 0xa3, 0x2f, 0xe9, 0x3e,
  0x83, 0x67, 0xaf, 0xbe, 0xfc, 0xb7, 0x11, 0x3e, 0x31, 0xb9, 0x94, 0x3e,
  0x39, 0x65, 0x40, 0xbd, 0x59, 0xe5, 0xc3, 0x3d, 0x31, 0x24, 0x8f, 0xbd,
  0x48, 0x2c, 0x51, 0x3e, 0x18, 0x34, 0x47, 0xbe, 0xba, 0xd9, 0xcf, 0xbd,
  0x06, 0x10, 0xe2, 0xbd, 0x5f, 0x3b, 0xc3, 0xbd, 0x64, 0x04, 0x4b, 0x3d,
  0xc8, 0xa1, 0xd0, 0x3e, 0xca, 0xb1, 0x1c, 0x3e, 0x1a, 0xbb, 0xae, 0xbd,
  0x53, 0x68, 0xfd, 0x3d, 0xfa, 0xbf, 0x3a, 0xbe, 0xb7, 0x27, 0xa9, 0xbd,
  0x6e, 0xfc, 0x89, 0x3e, 0xf0, 0xb1, 0x3b, 0xbe, 0xaf, 0x63, 0x8e, 0xbe,
  0x76, 0xcb, 0x9c, 0xbe, 0xf5, 0xd1, 0x49, 0xbc, 0xc4, 0x4d, 0x28, 0xbe,
  0x5a, 0x0a, 0x54, 0x3c, 0x99, 0xe6, 0x28, 0x3e, 0x19, 0x72, 0x21, 0xbf,
  0x80, 0x11, 0x2e, 0xbf, 0x36, 0xf1, 0xf9, 0xbe, 0xea, 0xe0, 0x1c, 0xbe,
  0x56, 0x46, 0x7f, 0xbe, 0xf6, 0x83, 0xb7, 0xbe, 0xb9, 0x1a, 0x1a, 0xbc,
  0x77, 0x96, 0x11, 0xbe, 0xe0, 0xe6, 0x85, 0xbe, 0x29, 0x37, 0x14, 0x3f,
  0x36, 0xd7, 0xfe, 0x3d, 0xc0, 0xdf, 0xb4, 0xbe, 0xa5, 0x11, 0x69, 0x3e,
  0x3d, 0xe7, 0xd9, 0x3d, 0x2b, 0x77, 0x0e, 0xbf, 0x44, 0x41, 0xbc, 0xbb,
  0xd3, 0xa8, 0x1c, 0xbc, 0x29, 0x44, 0x2d, 0xbe, 0xb7, 0xbd, 0x55, 0xbd,
  0xc3, 0xeb, 0x1f, 0xbe, 0xf9, 0xc4, 0x3c, 0x3d, 0xc4, 0x6d, 0x40, 0xbd,
  0xd3, 0x99, 0x9c, 0x3d, 0xd5, 0x98, 0x80, 0x3d, 0x8e, 0x7a, 0xd8, 0xbd,
  0x11, 0x06, 0x99, 0x3c, 0x00, 0x18, 0xc0, 0x3d, 0xea, 0xfe, 0x72, 0x3d,
  0x86, 0xae, 0x7e, 0x3e, 0x34, 0x39, 0x17, 0x3e, 0x16, 0x7a, 0xce, 0xbd,
  0xa3, 0xef, 0x0c, 0x3e, 0xfe, 0x71, 0x2e, 0xbe, 0x2e, 0x97, 0xce, 0xbd,
  0x50, 0x8d, 0x5b, 0x3d, 0x26, 0x20, 0x26, 0xbe, 0xa2, 0xca, 0x0d, 0xbe,
  0xc7, 0x07, 0x0c, 0xbe, 0x1f, 0x7c, 0x83, 0x3d, 0x96, 0xc1, 0xd0, 0x3d,
  0x41, 0xc7, 0x91, 0x3d, 0x93, 0x6e, 0x31, 0xbe, 0x8b, 0x57, 0xcc, 0x3d,
  0xba, 0xd9, 0x0c, 0x3d, 0x8f, 0xa8, 0x97, 0x3e, 0xb1, 0xb2, 0x80, 0x3d,
  0x5c, 0x4e, 0xd3, 0x3d, 0x97, 0x02, 0x92, 0x3d, 0xc8, 0x5c, 0xc5, 0xbd,
  0xed, 0xb9, 0xf0, 0xbb, 0x4e, 0x73, 0x88, 0x3e, 0x53, 0x39, 0xb3, 0xbd,
  0x33, 0xfb, 0x2b, 0xbe, 0x65, 0x69, 0x4f, 0xbe, 0x0a, 0xc3, 0x85, 0x3d,
  0xc2, 0x31, 0x08, 0xbe, 0x47, 0x7e, 0x8e, 0x3d, 0xec, 0x0e, 0xd1, 0xbe,
  0xb1, 0xa5, 0x97, 0xbd, 0x85, 0xea, 0x01, 0x3c, 0x45, 0xea, 0xa5, 0xbe,
  0x8a, 0x78, 0x03, 0xbe, 0xc1, 0xd6, 0xce, 0x3d, 0x59, 0x25, 0x20, 0x3d,
  0xf5, 0xd9, 0xf1, 0xbc, 0x98, 0x08, 0xc1, 0x3d, 0x5f, 0x31, 0x9f, 0x3e,
  0x60, 0x99, 0x4e, 0xbe, 0x65, 0x99, 0x10, 0xbe, 0xbc, 0xb4, 0x98, 0x3c,
  0x33, 0xdb, 0x80, 0x3d, 0x2d, 0x06, 0x13, 0x3d, 0x4a, 0x4f, 0x0c, 0x3e,
  0x95, 0xb4, 0xc6, 0xbe, 0xbb, 0x1c, 0xc5, 0xbd, 0xc9, 0xf0, 0x91, 0x3d,
  0x9c, 0x86, 0xda, 0xbd, 0xc7, 0x27, 0xce, 0xbd, 0xaa, 0x23, 0xf7, 0x3c,
  0xea, 0x8d, 0xf6, 0xbc, 0xae, 0x30, 0x95, 0x3c, 0xc0, 0x1b, 0x97, 0x3d,
  0x19, 0x87, 0x7d, 0x3e, 0x96, 0xbf, 0xac, 0xbd, 0xd4, 0xe3, 0x18, 0xbd,
  0x80, 0xae, 0x9d, 0xbd, 0xe9, 0x05, 0x88, 0x3d, 0x78, 0x50, 0x31, 0xbd,
  0x2c, 0xcd, 0x04, 0x3e, 0x57, 0xe6, 0xe8, 0xbe, 0x98, 0x28, 0x4d, 0xbe,
  0x4e, 0xbe, 0x0e, 0xbd, 0xe1, 0xd4, 0xf4, 0xbe, 0xd9, 0x87, 0xf9, 0xbc,
  0x98, 0x21, 0xab, 0xbd, 0x8c, 0x2c, 0x18, 0xbd, 0x10, 0xd3, 0x52, 0xbd,
  0xde, 0x16, 0xb2, 0xbd, 0x81, 0x04, 0x03, 0x3e, 0x44, 0x1c, 0xe8, 0xbd,
  0x00, 0xc9, 0x89, 0xbd, 0xcc, 0x42, 0x7b, 0xbc, 0x1c, 0xf9, 0x94, 0xbd,
  0x8e, 0x7c, 0xa3, 0x3d, 0xaf, 0xf8, 0x90, 0xbc, 0x11, 0x3a, 0x3e, 0xbe,
  0xdd, 0xf6, 0xcd, 0x3d, 0xf3, 0x52, 0xa1, 0x3d, 0x24, 0xbf, 0x25, 0xbe,
  0x8f, 0x93, 0xa2, 0x3a, 0xb7, 0x32, 0x05, 0x3c, 0x24, 0x14, 0xfb, 0x3c,
  0x36, 0xd0, 0x39, 0xbe, 0xbe, 0xc1, 0x85, 0xbe, 0x39, 0x03, 0xa5, 0x3c,
  0x56, 0xa5, 0x90, 0x3d, 0x67, 0x77, 0x66, 0xbe, 0x86, 0x0c, 0x13, 0xbe,
  0x10, 0xa1, 0x88, 0xbc, 0x5a, 0x15, 0x9d, 0xbe, 0x6b, 0x03, 0x10, 0x3e,
  0x63, 0xc9, 0x2a, 0xbc, 0x0b, 0x40, 0x7e, 0xbd, 0xca, 0x1d, 0xbc, 0xbc,
  0x7e, 0x1f, 0xc0, 0x3d, 0x0a, 0x41, 0x41, 0xbe, 0x5d, 0x7e, 0x98, 0xbd,
  0xe5, 0xdd, 0x16, 0xbe, 0xe4, 0xe6, 0xf4, 0xbd, 0x9d, 0x48, 0x21, 0xbd,
  0x9c, 0xbc, 0x2d, 0x3d, 0x4c, 0xad, 0x80, 0xbe, 0x65, 0xb3, 0x68, 0xbe,
  0x86, 0x88, 0x7b, 0xbe, 0x2d, 0x02, 0x52, 0xbe, 0xe2, 0x3a, 0x0c, 0x3e,
  0x91, 0x28, 0x59, 0xbe, 0x53, 0xa2, 0x5a, 0x3c, 0xb1, 0xd7, 0xa6, 0xbd,
  0x78, 0xc8, 0xb8, 0xbd, 0xa3, 0x24, 0x83, 0x3d, 0x9d, 0xb1, 0x57, 0x3d,
  0x20, 0x2b, 0x03, 0xbe, 0x1f, 0x22, 0xc7, 0x3d, 0x0d, 0x37, 0xd7, 0x3c,
  0x7c, 0xf7, 0x0d, 0x3e, 0x9e, 0x50, 0xa1, 0xbd, 0x23, 0x4c, 0x32, 0x3b,
  0xea, 0x1e, 0x95, 0xbe, 0x04, 0xd7, 0x37, 0xbc, 0x5c, 0x36, 0x61, 0xbe,
  0x67, 0xa9, 0xa0, 0xbd, 0xf1, 0x38, 0x1e, 0x3e, 0x44, 0x65, 0xd1, 0x3c,
  0x13, 0x0f, 0xe8, 0xbd, 0x39, 0x99, 0x4c, 0xbe, 0x5f, 0x7b, 0x65, 0x3d,
  0x28, 0x4e, 0x49, 0xbd, 0x87, 0x05, 0x5d, 0xbc, 0x3d, 0x15, 0x59, 0xbe,
  0xf9, 0x29, 0x59, 0xbe, 0x1c, 0x6a, 0x4e, 0x3c, 0xfc, 0x53, 0x99, 0x3d,
  0x7a, 0x7b, 0xf6, 0x3d, 0xc1, 0x60, 0x1d, 0x3d, 0xfd, 0xf5, 0xde, 0x3d,
  0xbf, 0x94, 0x3e, 0xbe, 0xfa, 0x47, 0x39, 0xbe, 0xdf, 0x9d, 0x37, 0x3e,
  0xbd, 0x3b, 0x12, 0xbe, 0x8d, 0x70, 0x43, 0x3e, 0xf8, 0x65, 0x87, 0xbe,
  0xb0, 0xb8, 0x19, 0xbe, 0x70, 0xc1, 0x41, 0xbe, 0xf4, 0x63, 0x17, 0xbe,
  0x12, 0x05, 0x15, 0x3e, 0x0f, 0xf4, 0x02, 0xbe, 0xf5, 0xf3, 0x04, 0x3e,
  0x8e, 0xac, 0x1c, 0x3d, 0x9c, 0x1e, 0xb8, 0x3d, 0xdc, 0x7d, 0x8d, 0xbe,
  0x46, 0x5c, 0x20, 0xbe, 0xad, 0xb9, 0x8c, 0xbe, 0x2d, 0xfc, 0x83, 0xbe,
  0xd6, 0xc9, 0x19, 0xbe, 0x9a, 0x1d, 0x10, 0xbd, 0x1a, 0x55, 0x67, 0x3d,
  0x2c, 0xdf, 0x02, 0x3c, 0xf5, 0xad, 0x41, 0xbe, 0x21, 0xba, 0x50, 0xbe,
  0xe7, 0xb5, 0x70, 0xbe, 0x23, 0x1e, 0x12, 0x3e, 0x14, 0x9d, 0x01, 0x3e,
  0x95, 0xe8, 0xfe, 0x3c, 0x61, 0x3c, 0x29, 0x3e, 0x4c, 0xce, 0x2a, 0x3e,
  0xd7, 0x44, 0xc8, 0xbe, 0x75, 0x04, 0xc8, 0xbd, 0xfb, 0x8c, 0x0a, 0xbe,
  0x69, 0x21, 0x66, 0xbd, 0xdc, 0x59, 0x82, 0x3c, 0x7b, 0xc2, 0x04, 0xbe,
  0x68, 0xd0, 0xeb, 0x3c, 0x54, 0xde, 0x31, 0xbe, 0xd5, 0x74, 0x0f, 0xbe,
  0x5d, 0xac, 0x80, 0x3d, 0x2f, 0x8d, 0x06, 0xbe, 0x40, 0x58, 0xd7, 0xbb,
  0x1c, 0xd4, 0x43, 0xbe, 0xb1, 0x3f, 0x30, 0x3d, 0x05, 0xd4, 0x10, 0x3d,
  0xe3, 0x6f, 0xfb, 0x3d, 0xe5, 0x9d, 0x19, 0xbe, 0xc0, 0xcb, 0xd2, 0xbd,
  0x86, 0xda, 0x54, 0xbd, 0x5b, 0xf7, 0xac, 0xbd, 0x39, 0x13, 0x4c, 0xbd,
  0xf0, 0x2c, 0xfa, 0xbd, 0x5a, 0x57, 0x54, 0xbe, 0x37, 0x63, 0x28, 0xbe,
  0xd3, 0x32, 0xd7, 0x3d, 0xb1, 0xb9, 0xa6, 0x3d, 0xa4, 0x33, 0x96, 0xbe,
  0x2e, 0x03, 0x74, 0x3c, 0xd0, 0x85, 0x07, 0x3f, 0x6f, 0x7d, 0xb9, 0xbe,
  0x90, 0x63, 0x4f, 0x3d, 0x7b, 0xf9, 0xac, 0x3d, 0xf3, 0xf2, 0x06, 0xbe,
  0xf3, 0x71, 0x4e, 0xbe, 0x08, 0x1a, 0x39, 0x39, 0x44, 0x82, 0x25, 0x3e,
  0x11, 0x6c, 0xd3, 0x3d, 0x16, 0x50, 0xcf, 0xbd, 0xc6, 0xc1, 0x0e, 0x3e,
  0xc1, 0xdd, 0xbe, 0x3c, 0x82, 0xc3, 0xc0, 0xbd, 0x00, 0x4a, 0x00, 0x3e,
  0xff, 0x58, 0x2b, 0x3e, 0x43, 0x1e, 0x62, 0xbe, 0x95, 0xbe, 0xb3, 0x3e,
  0x68, 0xf1, 0x97, 0xbc, 0x5c, 0x01, 0x83, 0xbd, 0x20, 0x5f, 0x97, 0x3e,
  0x21, 0x8c, 0x88, 0xbd, 0x13, 0xf8, 0x25, 0xbe, 0x68, 0x3a, 0xdd, 0xbd,
  0xd2, 0x3b, 0xd3, 0x3c, 0x53, 0xad, 0xcb, 0xbd, 0x36, 0x9e, 0x0f, 0x3e,
  0x45, 0x9f, 0x88, 0xbd, 0xd8, 0x5a, 0x9f, 0xbd, 0x05, 0x07, 0x9b, 0xbe,
  0x88, 0xda, 0x69, 0xba, 0xf2, 0xfa, 0xda, 0x3c, 0x6b, 0x86, 0x9a, 0xbe,
  0x83, 0x06, 0x97, 0x3e, 0xbf, 0xa2, 0xe2, 0x3d, 0xf1, 0xd9, 0x91, 0xbb,
  0x10, 0x31, 0xc1, 0x3e, 0xfe, 0x1c, 0x06, 0x3e, 0x35, 0x48, 0xe7, 0xbd,
  0x43, 0x41, 0x90, 0xbd, 0xe1, 0xed, 0x16, 0xbe, 0x9b, 0xed, 0x33, 0x3d,
  0x2c, 0x1a, 0x8e, 0x3e, 0x0c, 0xea, 0x0c, 0xbe, 0xec, 0x59, 0x46, 0x3d,
  0x17, 0x20, 0xc3, 0x3c, 0xcd, 0xc2, 0x6e, 0xbd, 0xb2, 0x86, 0x04, 0xbe,
  0x49, 0x9e, 0x10, 0xbe, 0x8d, 0xab, 0x98, 0x3e, 0x30, 0x86, 0x0f, 0x3e,
  0x21, 0x7e, 0xdb, 0xbd, 0x6a, 0xfa, 0x00, 0x3f, 0x83, 0x55, 0x80, 0x3d,
  0xe9, 0xd5, 0x3c, 0xbb, 0x14, 0x78, 0xb9, 0x3b, 0x82, 0x29, 0x84, 0xbd,
  0x27, 0x31, 0x02, 0xbe, 0x8e, 0x59, 0x22, 0x3e, 0x4a, 0x7a, 0x2c, 0x3e,
  0x53, 0xd2, 0xc3, 0xbc, 0x0f, 0x0a, 0x18, 0xbc, 0x48, 0x86, 0x43, 0x3d,
  0x84, 0xbb, 0x77, 0xbd, 0x1f, 0x96, 0x8e, 0xbd, 0x56, 0xa9, 0xb1, 0x3e,
  0x41, 0xe9, 0x86, 0xbe, 0xd0, 0x0a, 0x57, 0x3e, 0x33, 0xda, 0x99, 0x3e,
  0x4c, 0x8f, 0x8b, 0xbc, 0x2b, 0xc0, 0xd3, 0xbc, 0xda, 0xef, 0x6f, 0x3b,
  0x2b, 0x59, 0xf9, 0xbd, 0xff, 0xb3, 0x2f, 0xbe, 0x4d, 0x02, 0x9d, 0x3e,
  0x41, 0xdc, 0x44, 0x3c, 0x2d, 0x70, 0x60, 0xbc, 0x7b, 0x77, 0x6a, 0xbe,
  0xd8, 0x45, 0x0f, 0x3e, 0x69, 0x7f, 0x36, 0x3d, 0x80, 0x0f, 0x39, 0xbe,
  0xd7, 0xb6, 0xd1, 0x3e, 0x70, 0xa3, 0x31, 0xbe, 0xb7, 0x1a, 0x5c, 0x3e,
  0x1b, 0x83, 0x5d, 0x3e, 0x36, 0xdd, 0x0b, 0xbe, 0x3f, 0xe1, 0x84, 0x3c,
  0x2e, 0xed, 0xba, 0xbd, 0x22, 0x6a, 0x92, 0xbd, 0xe5, 0xa8, 0xd6, 0xbd,
  0x13, 0x80, 0x5b, 0x3e, 0xad, 0xd1, 0x4e, 0x3e, 0x8c, 0x8e, 0xfc, 0xbc,
  0x5a, 0xc2, 0x8f, 0xbc, 0xc5, 0x77, 0x81, 0x3e, 0x21, 0x7e, 0x0a, 0xbd,
  0xbd, 0x74, 0x2b, 0xbe, 0x44, 0x23, 0x73, 0xbd, 0xe5, 0xb3, 0x97, 0x3e,
  0x7d, 0xca, 0xd8, 0x3d, 0x20, 0x59, 0xd2, 0x3e, 0x06, 0x5a, 0xd3, 0xbd,
  0xc5, 0x9c, 0x6f, 0x3d, 0x1c, 0x0d, 0x9f, 0xbd, 0x76, 0x53, 0x54, 0xbe,
  0x0d, 0x49, 0x12, 0xbe, 0xca, 0x89, 0x2d, 0x3e, 0x5c, 0xe2, 0x8e, 0xbd,
  0x57, 0xe3, 0xc3, 0xbc, 0x3b, 0xc0, 0x2d, 0xbc, 0x18, 0x57, 0x54, 0xbc,
  0xd8, 0xcd, 0xd7, 0xbd, 0x18, 0x04, 0x86, 0xbc, 0x9c, 0xd5, 0x14, 0x3f,
  0xd6, 0x8d, 0xc6, 0xbb, 0x40, 0x24, 0x95, 0x3d, 0xae, 0x57, 0xe3, 0x3e,
  0x95, 0xf9, 0x02, 0x3e, 0x07, 0x34, 0x9a, 0xbe, 0x8e, 0xb5, 0x51, 0xbb,
  0xcd, 0xdd, 0x94, 0x3d, 0xf0, 0x08, 0x52, 0x3e, 0x0f, 0x4d, 0x7d, 0xbe,
  0x65, 0xa8, 0xd4, 0x3d, 0xeb, 0xd1, 0x40, 0x3d, 0x84, 0x33, 0x2a, 0xbe,
  0x61, 0x35, 0x72, 0x3e, 0x0d, 0x2f, 0x90, 0x3e, 0x5a, 0x30, 0x85, 0xbd,
  0x0c, 0x22, 0xb0, 0x3e, 0x61, 0x2e, 0x6d, 0x3e, 0x1b, 0xde, 0x40, 0xbc,
  0x96, 0xfe, 0xd8, 0x3e, 0x12, 0xe5, 0x15, 0xbe, 0x37, 0x25, 0xa6, 0xbd,
  0xe1, 0x2d, 0x2b, 0xbe, 0xd4, 0x2d, 0xc8, 0x3b, 0xfc, 0xec, 0x00, 0x3e,
  0xbb, 0x5e, 0x54, 0x3e, 0x4a, 0x9e, 0x31, 0xbd, 0x29, 0x9f, 0xa5, 0xbd,
  0x09, 0x49, 0xcc, 0xbd, 0x57, 0xfe, 0xb8, 0x3d, 0xca, 0xc9, 0x14, 0xbb,
  0x0a, 0x93, 0x71, 0xbe, 0x35, 0xf3, 0xb1, 0x3e, 0x98, 0xcb, 0x7c, 0x3e,
  0x97, 0xf2, 0x8a, 0xbb, 0xf1, 0x6d, 0xc3, 0x3e, 0xd2, 0xa5, 0x56, 0xbc,
  0xdc, 0xa1, 0x01, 0xbd, 0x39, 0x0a, 0xf9, 0xbd, 0xe1, 0x0f, 0x7e, 0x3d,
  0x8c, 0x53, 0xb8, 0x3d, 0x7a, 0x97, 0xc5, 0x3e, 0xbe, 0xc6, 0x80, 0xbc,
  0x90, 0x9f, 0xcb, 0xbd, 0x39, 0x97, 0x8c, 0x3a, 0x36, 0x35, 0x53, 0x3d,
  0x7c, 0x14, 0x34, 0xbe, 0x55, 0x9c, 0xa8, 0xbe, 0x32, 0x2f, 0xbf, 0x3e,
  0xd0, 0x67, 0xc0, 0x3d, 0x5e, 0x1d, 0xa0, 0xbd, 0x52, 0xc5, 0x9f, 0x3e,
  0xdf, 0xc6, 0xf0, 0xbd, 0xf5, 0x40, 0x92, 0xbd, 0x1b, 0x2d, 0xcc, 0xbd,
  0x2e, 0xaa, 0xed, 0xbd, 0x94, 0x78, 0xed, 0x3d, 0xb0, 0xe9, 0x03, 0x3f,
  0xcf, 0x36, 0x29, 0x3e, 0x01, 0x4a, 0x0c, 0xbe, 0xfd, 0x62, 0xf9, 0x3d,
  0x60, 0x7d, 0x2e, 0x3e, 0xe6, 0x0f, 0x3c, 0xbe, 0xdf, 0xcf, 0x8a, 0xbe,
  0xd8, 0x76, 0x0c, 0x3f, 0x44, 0x6e, 0x5d, 0x3d, 0xe7, 0x44, 0xf3, 0x3d,
  0x54, 0xff, 0x35, 0x3f, 0x23, 0x16, 0xf1, 0x3b, 0xf3, 0x0d, 0xef, 0xbc,
  0x3b, 0x67, 0xe1, 0xbd, 0x9e, 0xe4, 0xa1, 0xbe, 0xc4, 0x81, 0x75, 0x3d,
  0x97, 0x09, 0xbc, 0x3e, 0x51, 0x73, 0x89, 0x3d, 0x17, 0x3b, 0x3a, 0xbe,
  0xf3, 0xb3, 0xbc, 0x3d, 0x56, 0xdc, 0x41, 0xbd, 0xef, 0xaf, 0xc2, 0xbd,
  0x1d, 0xc0, 0x46, 0xbe, 0x8d, 0xb3, 0xd4, 0x3d, 0x14, 0xa5, 0xde, 0x3d,
  0x98, 0xdf, 0x0a, 0x3e, 0x8e, 0xa2, 0xb5, 0x3e, 0x64, 0xca, 0x9b, 0xbe,
  0x30, 0x35, 0x8e, 0x3d, 0xcc, 0x5c, 0xc6, 0xbd, 0x89, 0xce, 0x3f, 0xbe,
  0xd4, 0x9b, 0xcf, 0x3d, 0x4c, 0x80, 0xbd, 0x3e, 0x06, 0x9b, 0xc4, 0xbd,
  0xfe, 0xe2, 0xd9, 0x3d, 0x08, 0x37, 0x3e, 0xbe, 0x07, 0x25, 0x28, 0xbe,
  0x2d, 0x2d, 0x81, 0xbe, 0xb7, 0x6e, 0x78, 0xbe, 0x5f, 0xef, 0x83, 0xbe,
  0xca, 0x66, 0x7b, 0x3e, 0xd1, 0xbf, 0xda, 0xbb, 0x7d, 0xd8, 0x5b, 0xbd,
  0x60, 0xb2, 0xce, 0xbe, 0xfe, 0x2a, 0x8d, 0x3c, 0xdd, 0xef, 0xb6, 0xbd,
  0x47, 0x99, 0x19, 0x3e, 0x97, 0xbb, 0x5c, 0xbe, 0x50, 0xeb, 0x09, 0x3e,
  0x69, 0x1b, 0x04, 0xbc, 0xf1, 0x5a, 0x27, 0x3e, 0x4c, 0x4e, 0x49, 0xbc,
  0x0d, 0xc6, 0xa7, 0x3c, 0xf1, 0xc5, 0xdd, 0xbd, 0x4e, 0x17, 0x8c, 0xbe,
  0x14, 0x77, 0x7f, 0x3d, 0x74, 0x05, 0xce, 0x3b, 0xab, 0x8f, 0xcc, 0x3b,
  0xcd, 0x9e, 0x52, 0x3c, 0x6b, 0x50, 0x4c, 0xbe, 0x31, 0xd3, 0xb2, 0x3d,
  0x59, 0xe9, 0x90, 0xbe, 0x9b, 0x42, 0x1c, 0xbe, 0x79, 0x62, 0x02, 0x3e,
  0x1e, 0xf1, 0x96, 0x3d, 0xab, 0x66, 0xb9, 0xbc, 0x8d, 0x13, 0xa5, 0xbd,
  0xb0, 0x40, 0xbc, 0xbd, 0x3e, 0xc9, 0x7e, 0xbe, 0xc1, 0x5c, 0x0d, 0xbe,
  0x9b, 0x69, 0x8d, 0xbe, 0xdc, 0x73, 0xa1, 0xbd, 0x27, 0x1c, 0x1b, 0xbe,
  0x14, 0x4f, 0x3b, 0xbe, 0xcf, 0xa9, 0xc3, 0x3d, 0x91, 0xc9, 0xc6, 0xbd,
  0x14, 0x6f, 0x37, 0xbe, 0x58, 0xcc, 0x6e, 0xbe, 0x92, 0xe4, 0xc6, 0x3d,
  0x3a, 0x57, 0x1f, 0x3e, 0xac, 0xae, 0xaa, 0xbd, 0x8e, 0xdb, 0xb2, 0x3c,
  0xca, 0xb8, 0x26, 0xbe, 0x1b, 0xd1, 0x6e, 0xbd, 0xf3, 0xaa, 0x49, 0xbe,
  0x47, 0x64, 0x97, 0xbe, 0x79, 0x9d, 0x51, 0xbd, 0x41, 0x37, 0xcc, 0x3d,
  0x10, 0x68, 0x9f, 0x3c, 0x96, 0xa1, 0x7f, 0xbd, 0x01, 0x04, 0x4b, 0xbe,
  0xc7, 0xe7, 0x8b, 0xbe, 0xc8, 0xcd, 0xc3, 0xbc, 0x20, 0x31, 0x08, 0xbe,
  0xee, 0xb4, 0x4f, 0xbe, 0xac, 0xd0, 0x2f, 0xbc, 0xaf, 0xe9, 0x93, 0xbe,
  0x0d, 0x3b, 0x02, 0x3e, 0x8d, 0xe4, 0x50, 0xbe, 0xda, 0x08, 0x53, 0xbe,
  0x64, 0xfb, 0x8c, 0x3d, 0xed, 0x33, 0x5e, 0xbe, 0xef, 0xe6, 0xb3, 0x3d,
  0xa3, 0x43, 0x8d, 0xbd, 0x86, 0xd7, 0xd7, 0xbd, 0x64, 0xe9, 0x67, 0x3c,
  0x29, 0xfc, 0x45, 0xbe, 0xfb, 0xb8, 0x14, 0xbe, 0x99, 0x67, 0x42, 0x3c,
  0xc2, 0xdb, 0xa6, 0xbe, 0x26, 0xc6, 0xbf, 0x3d, 0xba, 0x52, 0xb0, 0xbd,
  0x8d, 0xde, 0x98, 0xbe, 0x02, 0x4b, 0x62, 0x3e, 0xc7, 0xbc, 0x53, 0xbe,
  0xdf, 0xe0, 0xa3, 0x3c, 0x72, 0x00, 0x2d, 0x3d, 0x12, 0xa2, 0x78, 0xbe,
  0xb0, 0x49, 0x70, 0x3d, 0xe3, 0xe7, 0xac, 0x3d, 0xe8, 0xa2, 0xf7, 0x3d,
  0xd7, 0x3a, 0x3d, 0x3d, 0x82, 0x27, 0x43, 0x3e, 0xca, 0x48, 0x6e, 0x3d,
  0xe5, 0x21, 0xb6, 0x3d, 0xa9, 0xef, 0x19, 0xbe, 0xe9, 0x14, 0x58, 0x3c,
  0x4d, 0xe0, 0x27, 0xbd, 0xe8, 0x6a, 0x43, 0x3c, 0xa5, 0x0e, 0xd1, 0x3d,
  0x4e, 0xf9, 0x8c, 0x3d, 0x4d, 0xa6, 0x13, 0x3e, 0x15, 0x24, 0x2e, 0x3d,
  0x6b, 0x19, 0x33, 0xbe, 0x4f, 0x1d, 0x1f, 0xbe, 0xb9, 0xf4, 0x9c, 0x3c,
  0x83, 0x36, 0x8d, 0xbd, 0x1c, 0x5f, 0xb0, 0x3d, 0x4a, 0x22, 0x4c, 0xbe,
  0x52, 0x10, 0x0e, 0xbe, 0xd3, 0xb2, 0x6a, 0x3c, 0x62, 0xe6, 0xb6, 0xbe,
  0x4b, 0x28, 0x71, 0xbd, 0xe5, 0x0c, 0x63, 0xbe, 0x10, 0x39, 0x18, 0xbe,
  0x31, 0x17, 0x4d, 0x3d, 0xbf, 0x16, 0xd4, 0x39, 0x04, 0x09, 0x43, 0x3e,
  0xb4, 0x8e, 0xe9, 0x3c, 0x00, 0x9a, 0x39, 0x3d, 0xd6, 0x26, 0x25, 0xbe,
  0x52, 0xea, 0x05, 0xbe, 0x3a, 0x72, 0xe6, 0xbd, 0x89, 0x5d, 0xa2, 0x3d,
  0xa6, 0x01, 0xd5, 0x3d, 0x7b, 0x18, 0xa2, 0xbe, 0xac, 0x16, 0x16, 0xbd,
  0x0e, 0x0c, 0x9f, 0xbe, 0x85, 0x2d, 0xed, 0xbc, 0x7d, 0xef, 0x10, 0xbc,
  0x30, 0x91, 0x5e, 0x3b, 0x15, 0x83, 0x8f, 0xbe, 0xd3, 0xf0, 0x48, 0xbe,
  0x83, 0x00, 0x1a, 0x3d, 0x1b, 0xfc, 0xf7, 0x3c, 0xe3, 0x57, 0x2a, 0xbe,
  0xf6, 0xfd, 0x1a, 0xbe, 0x47, 0xd3, 0xa8, 0xbe, 0xe4, 0x27, 0x02, 0xbf,
  0x9e, 0xcc, 0xff, 0xbe, 0x45, 0xd5, 0x89, 0x3d, 0xa3, 0x8e, 0x92, 0xbe,
  0xb8, 0x6f, 0xe0, 0xbe, 0xb3, 0xb9, 0xb3, 0xbd, 0xdf, 0x44, 0x8d, 0xbe,
  0x62, 0xd4, 0x2b, 0xbe, 0x0e, 0xe2, 0xf2, 0x3e, 0xdb, 0xd1, 0x86, 0x3e,
  0x0f, 0x31, 0x02, 0xbf, 0xc8, 0xe0, 0x02, 0x3e, 0x92, 0x26, 0x5e, 0xbd,
  0xdb, 0x3e, 0x0e, 0xbf, 0xcb, 0x6a, 0xe5, 0xbc, 0xc6, 0xb7, 0x6f, 0xbd,
  0x8a, 0xaa, 0x58, 0xbe, 0xd7, 0x94, 0x88, 0x3c, 0x82, 0x9a, 0x9f, 0x3d,
  0x31, 0x3a, 0x5b, 0xbd, 0x00, 0x43, 0xd5, 0xbe, 0xe2, 0x6a, 0x73, 0x3e,
  0xa2, 0x85, 0x9f, 0x3d, 0xe1, 0x20, 0x84, 0xbe, 0x11, 0x30, 0xbc, 0x3d,
  0x11, 0x00, 0xa1, 0x3e, 0x70, 0x03, 0x5c, 0x3d, 0xb5, 0x5a, 0xd1, 0x3e,
  0x08, 0x28, 0x26, 0x3e, 0x64, 0x5b, 0x0f, 0xbd, 0x06, 0x97, 0x42, 0x3e,
  0xa6, 0x99, 0x86, 0xbd, 0xf0, 0xe9, 0x41, 0xbe, 0x65, 0x9d, 0x53, 0x3d,
  0xdd, 0x5a, 0x1a, 0xbe, 0x9f, 0x29, 0x36, 0x3b, 0x70, 0x7a, 0x03, 0xbf,
  0x97, 0x5f, 0x33, 0x3d, 0x0f, 0x07, 0x37, 0xbd, 0xfe, 0x3b, 0xa6, 0x3c,
  0x8c, 0xf6, 0xde, 0xba, 0x4b, 0xad, 0x21, 0x3e, 0xf8, 0x40, 0x03, 0xbe,
  0xfb, 0x86, 0x9c, 0x3e, 0x83, 0xa3, 0x7a, 0x3e, 0x29, 0x1f, 0x3c, 0x3c,
  0x87, 0xc5, 0x52, 0x3e, 0x7b, 0x38, 0x28, 0x3d, 0xa0, 0x19, 0x9f, 0x3d,
  0x0f, 0xd0, 0xf3, 0x3d, 0x93, 0xee, 0x7b, 0x3e, 0xdb, 0x4c, 0x9a, 0x3d,
  0xad, 0xcb, 0x08, 0xbf, 0x9f, 0xd4, 0x1d, 0xbd, 0xb0, 0x8b, 0x9f, 0x3d,
  0x2a, 0x3a, 0x78, 0x3c, 0x5c, 0x1b, 0xdb, 0xbd, 0xf3, 0xa6, 0xee, 0xbd,
  0x6b, 0x8c, 0x2a, 0xbe, 0x88, 0x9b, 0xa1, 0xbd, 0xa8, 0xc0, 0x0e, 0x3d,
  0x97, 0x36, 0xbf, 0x3d, 0x8e, 0x1c, 0x43, 0xbb, 0x68, 0x20, 0x29, 0xbd,
  0x93, 0xb3, 0xa2, 0x3d, 0xba, 0xad, 0x6c, 0x3e, 0x57, 0xa6, 0x21, 0xbe,
  0x24, 0x83, 0xb2, 0xbd, 0xbd, 0x6e, 0xdc, 0xbe, 0xa5, 0x5e, 0xbc, 0xbb,
  0x33, 0x78, 0xf9, 0xbd, 0xd7, 0xe1, 0x57, 0x3e, 0xd1, 0x27, 0xa2, 0xbe,
  0xab, 0x11, 0x4d, 0xbe, 0x59, 0x10, 0x6e, 0xbd, 0xa0, 0x22, 0x80, 0xbe,
  0x19, 0x86, 0x8f, 0x3d, 0x9b, 0x20, 0xb8, 0x3d, 0x4c, 0xa3, 0x03, 0xbd,
  0x4c, 0xe2, 0x7a, 0xbd, 0x84, 0xa1, 0x17, 0x3d, 0x61, 0x1e, 0x05, 0xbd,
  0x30, 0x27, 0xa4, 0x3c, 0x71, 0x85, 0x08, 0xbe, 0x8a, 0x28, 0x0c, 0xbf,
  0x59, 0xfe, 0xdb, 0xbb, 0x45, 0x1c, 0xf9, 0xbd, 0xca, 0xc4, 0xe2, 0xbd,
  0x5c, 0x6e, 0xf3, 0xbe, 0xe0, 0x1d, 0xcb, 0xbd, 0xd4, 0xba, 0xc6, 0xbd,
  0x0f, 0x63, 0x4a, 0xbd, 0x76, 0xe7, 0xba, 0xbd, 0x88, 0x4e, 0x3c, 0x3d,
  0xf6, 0xcc, 0x74, 0xbd, 0xb4, 0x74, 0x0b, 0xbc, 0xb3, 0x57, 0xd8, 0xbd,
  0x06, 0x58, 0x56, 0x3d, 0x49, 0xf5, 0x51, 0xbd, 0x75, 0x87, 0x4a, 0xbd,
  0xd7, 0x8c, 0xe8, 0xbe, 0xee, 0x33, 0x26, 0xbe, 0xd2, 0xa3, 0x20, 0xbe,
  0xf1, 0xd3, 0x6b, 0xbc, 0xfc, 0xd3, 0x35, 0xbe, 0x4b, 0x50, 0x1f, 0xbd,
  0xf1, 0x06, 0x62, 0x3d, 0x64, 0x6d, 0x1d, 0xbe, 0xa0, 0x07, 0xb3, 0xbd,
  0xcd, 0xf1, 0xa1, 0xbd, 0x12, 0xdf, 0x96, 0xbc, 0xa2, 0xe1, 0x2f, 0xbe,
  0x73, 0x3c, 0xff, 0xbc, 0x1c, 0xc2, 0x0b, 0xbd, 0xfe, 0xcd, 0xd4, 0x3c,
  0xe3, 0xc2, 0xa9, 0xbe, 0x85, 0x02, 0x70, 0xbd, 0x5e, 0xf3, 0xa9, 0xbd,
  0x48, 0xb9, 0x7a, 0xbd, 0x8d, 0x54, 0xdf, 0xbc, 0x7f, 0xd0, 0x7c, 0xbe,
  0x70, 0x4c, 0xab, 0xbe, 0xad, 0x84, 0x03, 0xbd, 0x41, 0x49, 0xa6, 0xbe,
  0xb5, 0x09, 0x4a, 0xbe, 0xf6, 0x91, 0x19, 0xbe, 0x80, 0x6d, 0x51, 0xbe,
  0xca, 0x7f, 0x1f, 0xbe, 0xc1, 0xbf, 0xa9, 0xbd, 0xa0, 0x4d, 0x87, 0x3e,
  0x0e, 0x91, 0xc2, 0x3e, 0xb5, 0xb5, 0x00, 0xbf, 0xa8, 0xef, 0x47, 0xbc,
  0x08, 0x1d, 0xee, 0xbd, 0xc3, 0xf1, 0x0c, 0xbb, 0x8f, 0xdf, 0xcb, 0xbd,
  0x00, 0x42, 0xfd, 0x3d, 0x04, 0xb3, 0x83, 0xbe, 0x9b, 0xac, 0xd9, 0x3b,
  0xd7, 0xf1, 0xc3, 0xbe, 0xe3, 0x1a, 0x15, 0xbe, 0x94, 0xe2, 0x61, 0x3d,
  0xa7, 0xe2, 0x02, 0xbf, 0x5e, 0x6a, 0x18, 0xbe, 0xf8, 0x06, 0x04, 0xbc,
  0xbc, 0x47, 0xb8, 0x3d, 0x44, 0x46, 0x4b, 0x3d, 0x48, 0xea, 0xff, 0xbe,
  0x5c, 0x85, 0xdf, 0xbd, 0x82, 0xf4, 0x85, 0xbe, 0x7f, 0x11, 0x3c, 0x3c,
  0x28, 0x21, 0x60, 0xbe, 0x7c, 0xd0, 0xfd, 0x3d, 0xe7, 0x74, 0x9c, 0xbe,
  0x5b, 0x77, 0x43, 0xbd, 0x3c, 0xd9, 0xaf, 0x3c, 0xb0, 0xc7, 0xb6, 0xbe,
  0xf3, 0x48, 0x5e, 0xbb, 0x85, 0xa9, 0xe4, 0xbe, 0xeb, 0x39, 0x52, 0xbe,
  0xc3, 0xa7, 0x30, 0x3e, 0xf0, 0x44, 0xf5, 0xbc, 0x3c, 0x9a, 0xb0, 0x3e,
  0xa4, 0xb7, 0x16, 0xbf, 0xe8, 0x17, 0xa2, 0xbc, 0xa1, 0xa6, 0x26, 0xbe,
  0x5c, 0xf6, 0x47, 0x3d, 0x6b, 0x45, 0x84, 0xbd, 0xa7, 0x3c, 0x2c, 0x3e,
  0x13, 0x42, 0xb5, 0xbe, 0xc5, 0xd7, 0xf3, 0xbc, 0xf7, 0xe5, 0x82, 0xbd,
  0x0b, 0xf9, 0x8b, 0xbe, 0x37, 0xd6, 0xc9, 0xbc, 0x39, 0xa7, 0xbe, 0xbe,
  0x0e, 0x0b, 0x20, 0xbf, 0xc7, 0xe8, 0x38, 0x3e, 0xa3, 0x3b, 0x88, 0x3e,
  0xc0, 0xc1, 0xc8, 0xbd, 0xf5, 0x8e, 0xf8, 0xbe, 0x51, 0x5f, 0x76, 0xbd,
  0x36, 0x04, 0x43, 0xbe, 0x84, 0x70, 0x94, 0xbd, 0x5e, 0x90, 0x11, 0x3d,
  0x0a, 0x0c, 0x9e, 0x3d, 0x39, 0x19, 0x5a, 0xbe, 0x41, 0x7e, 0x46, 0x3c,
  0xb8, 0xe8, 0x8c, 0x3e, 0x49, 0xdc, 0x99, 0xbe, 0x2d, 0xe2, 0xc9, 0xbd,
  0xa8, 0x32, 0xe7, 0x3d, 0x02, 0xf2, 0xfc, 0xbe, 0x2f, 0x5e, 0x4e, 0x3d,
  0x4b, 0xbc, 0x60, 0xbe, 0xa9, 0x1e, 0xf6, 0xbe, 0x5d, 0x3a, 0xbe, 0xbe,
  0xff, 0x81, 0xb7, 0xbd, 0x57, 0xb5, 0xfb, 0xbc, 0xcf, 0x13, 0x8b, 0x3e,
  0xc9, 0x05, 0x1f, 0xbd, 0x26, 0x5a, 0x61, 0x3e, 0xd2, 0x78, 0x16, 0xbd,
  0xc7, 0xd2, 0x89, 0x3d, 0xee, 0xe2, 0x29, 0x3d, 0x0b, 0x04, 0xc5, 0xbd,
  0xf0, 0x76, 0x8f, 0xbd, 0xa3, 0xaf, 0x4b, 0x3e, 0xd0, 0x70, 0x31, 0xbe,
  0x30, 0xd5, 0x35, 0x3e, 0x82, 0x26, 0xfb, 0x3c, 0xf4, 0xf1, 0x9f, 0x3d,
  0x93, 0xe9, 0x90, 0x3e, 0xf9, 0x1b, 0x70, 0xbd, 0x83, 0xcd, 0x9e, 0x3e,
  0x61, 0x6c, 0x10, 0x3d, 0xce, 0x06, 0x98, 0x3d, 0xa1, 0x21, 0x86, 0x3e,
  0x79, 0x69, 0x0e, 0x3e, 0xe3, 0x71, 0x1e, 0xbe, 0xfe, 0x4a, 0x6f, 0x3e,
  0x80, 0x3e, 0x78, 0xbd, 0x9e, 0x7a, 0x89, 0x3e, 0xba, 0xdb, 0xfb, 0x3d,
  0x66, 0xfd, 0xff, 0xff, 0x10, 0x00, 0x00, 0x00, 0x07, 0x00, 0x00, 0x00,
  0x14, 0x00, 0x00, 0x00, 0x2c, 0x00, 0x00, 0x00, 0x02, 0x00, 0x00, 0x00,
  0x10, 0x00, 0x00, 0x00, 0x70, 0x00, 0x00, 0x00, 0x17, 0x00, 0x00, 0x00,
  0x73, 0x65, 0x71, 0x75, 0x65, 0x6e, 0x74, 0x69, 0x61, 0x6c, 0x2f, 0x64,
  0x65, 0x6e, 0x73, 0x65, 0x2f, 0x4d, 0x61, 0x74, 0x4d, 0x75, 0x6c, 0x00,
  0xd0, 0xfc, 0xff, 0xff, 0xda, 0xfd, 0xff, 0xff, 0x04, 0x00, 0x00, 0x00,
  0x08, 0x00, 0x00, 0x00, 0xff, 0xff, 0xff, 0xff, 0x70, 0x00, 0x00, 0x00,
  0x00, 0x00, 0x0e, 0x00, 0x18, 0x00, 0x08, 0x00, 0x07, 0x00, 0x0c, 0x00,
  0x10, 0x00, 0x14, 0x00, 0x0e, 0x00, 0x00, 0x00, 0x00, 0x00, 0x00, 0x02,
  0x10, 0x00, 0x00, 0x00, 0x06, 0x00, 0x00, 0x00, 0x10, 0x00, 0x00, 0x00,
  0x2c, 0x00, 0x00, 0x00, 0x01, 0x00, 0x00, 0x00, 0x02, 0x00, 0x00, 0x00,
  0x18, 0x00, 0x00, 0x00, 0x73, 0x65, 0x71, 0x75, 0x65, 0x6e, 0x74, 0x69,
  0x61, 0x6c, 0x2f, 0x66, 0x6c, 0x61, 0x74, 0x74, 0x65, 0x6e, 0x2f, 0x43,
  0x6f, 0x6e, 0x73, 0x74, 0x00, 0x00, 0x00, 0x00, 0x38, 0xfd, 0xff, 0xff,
  0x42, 0xfe, 0xff, 0xff, 0x04, 0x00, 0x00, 0x00, 0x0c, 0x00, 0x00, 0x00,
  0xa9, 0x31, 0xe7, 0xbe, 0x5b, 0x4c, 0xe1, 0xbf, 0xdb, 0x0f, 0x71, 0x3f,
  0x26, 0xfe, 0xff, 0xff, 0x10, 0x00, 0x00, 0x00, 0x05, 0x00, 0x00, 0x00,
  0x10, 0x00, 0x00, 0x00, 0x44, 0x00, 0x00, 0x00, 0x01, 0x00, 0x00, 0x00,
  0x03, 0x00, 0x00, 0x00, 0x32, 0x00, 0x00, 0x00, 0x73, 0x65, 0x71, 0x75,
  0x65, 0x6e, 0x74, 0x69, 0x61, 0x6c, 0x2f, 0x64, 0x65, 0x6e, 0x73, 0x65,
  0x5f, 0x31, 0x2f, 0x42, 0x69, 0x61, 0x73, 0x41, 0x64, 0x64, 0x2f, 0x52,
  0x65, 0x61, 0x64, 0x56, 0x61, 0x72, 0x69, 0x61, 0x62, 0x6c, 0x65, 0x4f,
  0x70, 0x2f, 0x72, 0x65, 0x73, 0x6f, 0x75, 0x72, 0x63, 0x65, 0x00, 0x00,
  0xa8, 0xfd, 0xff, 0xff, 0xb2, 0xfe, 0xff, 0xff, 0x04, 0x00, 0x00, 0x00,
  0x40, 0x00, 0x00, 0x00, 0x99, 0x9f, 0x87, 0xbe, 0x47, 0x47, 0x4a, 0xbe,
  0x5f, 0x86, 0x14, 0x40, 0xcf, 0xee, 0xb9, 0xbf, 0xd4, 0xad, 0xe7, 0xbe,
  0x62, 0xa1, 0xa0, 0xbe, 0x75, 0x28, 0x3f, 0x3e, 0xb5, 0xd7, 0x04, 0x40,
  0xd3, 0xba, 0x3c, 0xbe, 0x4b, 0xd1, 0x4f, 0xbf, 0x0a, 0x79, 0x41, 0xbe,
  0xaa, 0x6c, 0x49, 0xbe, 0x3b, 0x04, 0xbc, 0xbd, 0xd5, 0x24, 0x5e, 0xbe,
  0xe9, 0x4d, 0x8b, 0xbf, 0xd2, 0x15, 0x28, 0x3f, 0xca, 0xfe, 0xff, 0xff,
  0x10, 0x00, 0x00, 0x00, 0x04, 0x00, 0x00, 0x00, 0x10, 0x00, 0x00, 0x00,
  0x44, 0x00, 0x00, 0x00, 0x01, 0x00, 0x00, 0x00, 0x10, 0x00, 0x00, 0x00,
  0x30, 0x00, 0x00, 0x00, 0x73, 0x65, 0x71, 0x75, 0x65, 0x6e, 0x74, 0x69,
  0x61, 0x6c, 0x2f, 0x64, 0x65, 0x6e, 0x73, 0x65, 0x2f, 0x42, 0x69, 0x61,
  0x73, 0x41, 0x64, 0x64, 0x2f, 0x52, 0x65, 0x61, 0x64, 0x56, 0x61, 0x72,
  0x69, 0x61, 0x62, 0x6c, 0x65, 0x4f, 0x70, 0x2f, 0x72, 0x65, 0x73, 0x6f,
  0x75, 0x72, 0x63, 0x65, 0x00, 0x00, 0x00, 0x00, 0x4c, 0xfe, 0xff, 0xff,
  0x56, 0xff, 0xff, 0xff, 0x04, 0x00, 0x00, 0x00, 0x40, 0x00, 0x00, 0x00,
  0x93, 0xc1, 0x87, 0xbf, 0xd6, 0xfe, 0xf9, 0x3e, 0x74, 0xc6, 0x97, 0x3e,
  0x27, 0x35, 0xa4, 0x3f, 0x35, 0xa2, 0x4d, 0xbc, 0xf2, 0x05, 0x67, 0xbc,
  0xe6, 0x23, 0x98, 0xbf, 0xf1, 0x9f, 0xd4, 0xbc, 0x5e, 0xc8, 0xe2, 0xbc,
  0x66, 0x5e, 0x1d, 0x40, 0x30, 0x7c, 0x25, 0xc0, 0x5e, 0x08, 0x37, 0xbd,
  0x66, 0x3c, 0xb1, 0xbf, 0x9c, 0x70, 0x48, 0xc0, 0xf0, 0xa4, 0xa1, 0xbe,
  0xdd, 0xb9, 0xe3, 0xbe, 0x6e, 0xff, 0xff, 0xff, 0x10, 0x00, 0x00, 0x00,
  0x03, 0x00, 0x00, 0x00, 0x10, 0x00, 0x00, 0x00, 0x48, 0x00, 0x00, 0x00,
  0x01, 0x00, 0x00, 0x00, 0x10, 0x00, 0x00, 0x00, 0x33, 0x00, 0x00, 0x00,
  0x73, 0x65, 0x71, 0x75, 0x65, 0x6e, 0x74, 0x69, 0x61, 0x6c, 0x2f, 0x63,
  0x6f, 0x6e, 0x76, 0x32, 0x64, 0x5f, 0x31, 0x2f, 0x42, 0x69, 0x61, 0x73,
  0x41, 0x64, 0x64, 0x2f, 0x52, 0x65, 0x61, 0x64, 0x56, 0x61, 0x72, 0x69,
  0x61, 0x62, 0x6c, 0x65, 0x4f, 0x70, 0x2f, 0x72, 0x65, 0x73, 0x6f, 0x75,
  0x72, 0x63, 0x65, 0x00, 0x04, 0x00, 0x06, 0x00, 0x04, 0x00, 0x00, 0x00,
  0x00, 0x00, 0x06, 0x00, 0x08, 0x00, 0x04, 0x00, 0x06, 0x00, 0x00, 0x00,
  0x04, 0x00, 0x00, 0x00, 0x20, 0x00, 0x00, 0x00, 0x49, 0x6c, 0x5b, 0xc0,
  0x96, 0x89, 0xc8, 0xbf, 0xca, 0x31, 0x6d, 0xc0, 0x36, 0xb5, 0xe6, 0xbd,
  0x5d, 0x07, 0x23, 0xbe, 0x73, 0xa6, 0x1d, 0xbf, 0xd7, 0xe9, 0x2a, 0xc0,
  0xa2, 0x5d, 0x19, 0xc0, 0x00, 0x00, 0x0e, 0x00, 0x14, 0x00, 0x04, 0x00,
  0x00, 0x00, 0x08, 0x00, 0x0c, 0x00, 0x10, 0x00, 0x0e, 0x00, 0x00, 0x00,
  0x10, 0x00, 0x00, 0x00, 0x02, 0x00, 0x00, 0x00, 0x10, 0x00, 0x00, 0x00,
  0x44, 0x00, 0x00, 0x00, 0x01, 0x00, 0x00, 0x00, 0x08, 0x00, 0x00, 0x00,
  0x31, 0x00, 0x00, 0x00, 0x73, 0x65, 0x71, 0x75, 0x65, 0x6e, 0x74, 0x69,
  0x61, 0x6c, 0x2f, 0x63, 0x6f, 0x6e, 0x76, 0x32, 0x64, 0x2f, 0x42, 0x69,
  0x61, 0x73, 0x41, 0x64, 0x64, 0x2f, 0x52, 0x65, 0x61, 0x64, 0x56, 0x61,
  0x72, 0x69, 0x61, 0x62, 0x6c, 0x65, 0x4f, 0x70, 0x2f, 0x72, 0x65, 0x73,
  0x6f, 0x75, 0x72, 0x63, 0x65, 0x00, 0x00, 0x00, 0x90, 0xff, 0xff, 0xff,
  0x14, 0x00, 0x18, 0x00, 0x04, 0x00, 0x00, 0x00, 0x08, 0x00, 0x0c, 0x00,
  0x10, 0x00, 0x00, 0x00, 0x00, 0x00, 0x14, 0x00, 0x14, 0x00, 0x00, 0x00,
  0x14, 0x00, 0x00, 0x00, 0x01, 0x00, 0x00, 0x00, 0x20, 0x00, 0x00, 0x00,
  0x44, 0x00, 0x00, 0x00, 0x2c, 0x00, 0x00, 0x00, 0x04, 0x00, 0x00, 0x00,
  0x01, 0x00, 0x00, 0x00, 0x40, 0x00, 0x00, 0x00, 0x03, 0x00, 0x00, 0x00,
  0x01, 0x00, 0x00, 0x00, 0x0c, 0x00, 0x00, 0x00, 0x63, 0x6f, 0x6e, 0x76,
  0x32, 0x64, 0x5f, 0x69, 0x6e, 0x70, 0x75, 0x74, 0x00, 0x00, 0x00, 0x00,
  0x04, 0x00, 0x00, 0x00, 0xff, 0xff, 0xff, 0xff, 0x40, 0x00, 0x00, 0x00,
  0x03, 0x00, 0x00, 0x00, 0x01, 0x00, 0x00, 0x00, 0xfc, 0xff, 0xff, 0xff,
  0x04, 0x00, 0x04, 0x00, 0x04, 0x00, 0x00, 0x00
};

unsigned int model_tflite_len = 13052;// Fill the int in `src/model.cc` here